#version: 0.2
Ġ Ġ
ĠĠ ĠĠ
č Ċ
ĠĠ Ġ
ĠĠĠĠ ĠĠĠĠ
ĠĠĠĠ ĠĠĠ
- >
r e
Ġ =
i n
) ;
s t
ĠĠĠĠĠĠĠĠ ĠĠĠ
Ġ (
d e
Ġ i
Ġ *
s e
Ġ s
a t
Ġ c
e r
e n
ĠĠĠĠĠĠĠĠ ĠĠĠĠĠĠĠĠ
o n
o r
in t
Ġ 0
Ġi f
Ġ }
Ġ {
Ġ a
c t
l e
Ġ t
a m
Ġ b
Ġ f
i t
Ġ re
l o
s i
z e
c o
Ġ p
a l
Ġ &
ĠĠĠĠĠĠĠĠ ĠĠĠĠĠĠĠ
e l
a r
u r
Ġ /
e t
Ġre t
Ġ 1
a n
Ġ int
i d
c k
a d
Ġ "
f f
h e
Ġ +
Ġ m
i c
u t
Ġ v
o p
si ze
Ġ* /
u n
Ġ g
Ġ A
e x
am e
Ġ/ *
Ġ <
e m
Ġa v
a se
Ġ -
ur n
at e
ct x
0 0
Ġ n
se t
Ġret urn
Ġ d
c h
l a
o t
b u
t r
ĠA V
E R
e d
co de
ĠĠĠĠĠĠĠĠ ĠĠĠĠĠĠĠĠĠĠĠ
m a
i o
i on
d r
p e
Ġ o
i l
er r
Ġc ase
m p
u e
Ġ %
at a
Ġ= =
3 2
a v
p r
st r
I N
" ,
) )
Ġ w
Ġ u
r ame
ex t
in g
( &
a b
i g
Ġ >
a k
Ġ h
el se
Ġf or
Ġ q
de v
lo ck
Ġ r
i ze
Ġ |
re ak
6 4
Ġ l
R E
+ +
g et
Ġb reak
i f
u m
Ġ in
p u
r c
Ġ else
D E
i s
Ġ 2
e s
t h
L L
a s
st at
g s
] ;
O R
Ġ N
i r
Ġt he
t y
m m
t s
Ġ !
Ġs ize
d ata
b it
o de
on t
en v
bu f
u l
f rame
a c
U LL
a ck
Ġ& &
en d
p i
r o
ab le
1 6
i m
ff set
i le
Ġ P
Ġ st
C O
Ġ de
L O
Ġu int
av ctx
] [
Ġc h
re am
M A
ty pe
ĠĠĠĠĠĠĠĠĠĠĠĠĠĠĠĠ ĠĠĠĠĠĠĠĠĠĠĠĠĠĠĠĠ
] ,
T A
Ġ S
ĠĠĠĠĠĠĠĠ ĠĠĠĠ
m b
s c
in e
Ġc on
lo g
ER R
am p
Ġ( !
de x
i st
ĠN ULL
o f
stat ic
o id
ont ext
t er
em u
" );
de r
ad dr
Ġb u
) );
i v
u p
++ )
o ut
F F
ĠĠĠĠĠĠĠĠĠĠĠĠĠĠĠĠ ĠĠĠĠĠĠĠ
g e
ERR OR
bit s
l en
an d
un t
) ,
Ġ 4
g b
amp le
p ut
c on
v al
re s
ic e
Ġ! =
Ġ M
p s
code c
I D
lo c
or t
P C
ar t
se r
C P
t e
f o
f la
en t
I O
in dex
Ġt o
c e
ig h
A L
Ġ T
] .
S t
m at
E T
st ream
err or
i p
u s
Ġ% %
i de
Ġcon st
n el
o l
Ġi s
c pu
E N
re ad
Ġ| |
ct or
b lock
ot o
Ġ+ =
n t
in it
ff er
a p
p b
o ffset
C ontext
Ġq emu
co unt
u re
p c
igh t
n um
o v
re g
LO G
Ġg et
Ġ 8
p tr
P E
( "
M E
q ue
ĉ ĉ
Ġ> >
Ġ( (
il ter
Ġg oto
Ġ/ /
b s
Ġ 3
re f
k t
S I
Ġbu f
Ġc o
St ate
t able
Ġ< <
S T
s ample
re t
Ġf f
Ġ B
id th
re e
Ġt c
Ġs rc
u b
r it
o s
Ġc pu
Ġv al
Ġ x
s p
R A
Ġv oid
fla gs
Ġ op
Ġsize of
n ame
n e
ack et
Ġ C
an nel
l ine
o w
a der
Ġa d
C T
si g
re d
Ġ V
i x
n d
ad d
f d
ul t
t o
s rc
L A
t im
Ġ str
r a
00 00
at ion
Ġm em
c l
rit e
Ġch ar
I T
ct ure
int f
Ġav ctx
L E
P R
f ree
Ġtc g
Ġg en
F I
f a
ĠĠĠĠ ĠĠ
m em
Ġ D
bu ffer
e v
Ġ I
Ġ j
Ġ un
or mat
Ġt h
A D
c ur
IN T
he ight
p l
Ġ k
s h
he ader
Ġo ut
or y
Ġ :
Ġ '
Ġ se
S E
pi x
n c
T Y
p ort
Ġ \
w idth
s k
sig n
CP U
al loc
] );
st art
Ġ y
Ġ Q
Ġ R
Ġ env
Ġl en
ĠĠĠĠ Ġ
d st
t x
ma p
in fo
p ar
b ase
Ġt r
Ġ error
A R
Ġb y
st ate
Ġa s
t ion
A V
TY PE
c i
o st
Ġb e
Ġ ex
Ġ E
Ġ ?
Ġa l
u st
ch annel
RE G
Ġ O
V AL
pr intf
s l
m v
v er
p h
re nt
y s
a le
ĠĠĠĠĠĠĠĠĠĠĠĠĠĠĠĠ ĠĠĠĠĠĠĠĠ
Ġ1 6
Ġn ot
Z E
u int
ĠĠĠĠĠĠĠĠĠĠĠĠĠĠĠĠ ĠĠĠĠĠĠĠĠĠĠĠ
d i
m ode
la st
ĠĠĠĠĠĠĠĠĠĠĠĠ ĠĠ
a g
Ġo ffset
w rite
C E
la y
m d
ĠAV ERROR
00 0
Ġf rame
b y
M T
n o
p kt
l ist
m ov
P I
u ct
CO DE
dr v
m t
Ġ F
C K
p er
Ġw h
( );
Ġ> =
Ġo f
MA X
pi cture
Ġ en
SI ZE
Ġc tx
D I
b j
R G
s s
B U
C H
q u
Ġb lock
m s
Ġf a
bu s
sign ed
n b
c b
O P
f ile
v oid
Ġd st
Ġn e
g en
P A
tim e
ar get
em p
p acket
fa ult
r am
l y
on g
F MT
co mp
b e
it ch
Ġ e
Ġw e
end if
p a
Ġd o
Ġ G
e c
Ġs w
in d
he ck
) {
si on
l k
le v
U N
ma x
en ame
Ġa r
tr y
ser t
r ate
p y
IN VAL
ir q
f il
Ġd ata
ne w
lev el
u d
de f
ac e
err p
T E
res s
s ub
ac he
e ct
Ġ on
1 2
Ġm a
Ġad dr
Ġ FF
a que
Ġc ode
Ġt mp
Ġb it
line size
d c
f ilter
ig n
Ġa nd
Ġav io
id x
g th
++ ;
M U
an t
CO N
c r
ust er
CODE C
p ic
f mt
C I
Ġm b
t es
p os
Ġ H
e y
D A
( (
Ġsw itch
U S
s o
stat us
pix el
s n
D R
_ _
m ent
el d
TA RG
TARG ET
con f
lo w
] )
Ġ| =
i eld
C G
S K
Ġ 5
E X
N O
c c
it h
ro m
f ormat
ir t
F LA
Ġun signed
lo ad
de code
Ġs o
ud io
M P
Ġn b
ct ion
iv e
se ctor
Ġp r
io v
V I
dev ice
fil ename
Ġs h
1 0
S S
l c
Ġ* )
p re
Ġs c
S C
if t
l d
I n
ist er
re q
sc ale
Ġ 6
op ts
Ġval ue
v m
ma sk
f t
Ġde fault
FLA G
t mp
pr iv
b o
n ext
lo at
Ġfa il
pe g
reg ion
f e
c mp
sample s
t l
ar g
Ġc ur
Ġwh ile
ĠĠĠĠĠĠĠĠ ĠĠ
ĠĠĠĠĠĠĠĠĠĠĠĠĠĠĠĠ ĠĠ
val ue
i al
y pe
ir st
S TA
pr o
ad ata
Ġ err
s y
ĠĠĠĠĠĠĠĠĠĠĠĠĠĠĠĠ ĠĠĠĠĠĠĠĠĠĠĠĠ
channel s
DA TA
at h
pr op
Ġin it
bj ect
u se
r or
x y
Ġp kt
cur rent
m alloc
pc i
c ache
p ts
- -
ide o
G E
loc al
ĠĠĠĠĠĠĠĠĠĠĠĠĠĠĠĠ ĠĠĠĠĠĠĠĠĠĠĠĠĠĠĠ
ro ma
Ġf la
ch r
que st
] =
N E
e p
F ilter
MA SK
e ff
Ġre g
t ab
2 64
val id
in k
Ġ L
op aque
c md
re gs
le ft
str ide
2 4
f s
Ġ set
p red
int er
m l
B A
par am
al l
t b
Ġb drv
BU G
te stream
Ġi t
Ġ W
t emp
p o
es s
Ġt arget
ev ice
e ctor
mem ory
cl uster
av e
t a
Ġ< =
Ġ .
un d
un k
d ate
r ror
stream s
re ate
k ey
Ġ X
r d
ĠT CG
Ġn um
S R
DE BUG
Ġs l
x ff
h ost
sl ice
er nel
an ge
Ġst art
Ġ 7
Ġre s
en c
R O
m in
co l
R e
U T
Ġ end
Ġre ad
fla g
Ġ header
Ġco mp
ce p
o d
Ġ ~
c ontext
Ġne w
Ġt ype
T S
IO N
len gth
op t
u v
h as
Ġstr uct
F ormat
ar d
Ġ at
ul d
Ġp ut
b lk
Ġb o
z er
iv er
Ġ CPU
Ġ 32
i es
C A
Ġb s
v lc
di ct
c s
Ġmem ory
d ir
conf ig
( *
a ge
M O
f l
ĠĠĠĠĠĠĠĠĠĠĠĠĠĠĠĠ ĠĠĠĠĠĠ
Ġp ar
INVAL ID
P S
an e
Ġf printf
as k
Ġma x
q emu
sector s
b er
Ġ U
Ġad d
Ġp ci
Ġ TARGET
B IT
Ġ* *
str uct
pixel s
ch roma
r l
Ġt im
Ġth is
Ġc heck
up port
re ct
f ield
Ġs ample
O W
S A
ex tr
ME M
/ *
T I
ma ge
Ġre f
5 6
' ,
c py
ot ion
h ci
out put
R T
Ġ1 2
f or
Ġst ream
Ġc ont
Ġp ix
sh ift
Ġde code
con st
ĠP CI
S H
der r
a in
d is
Ġ dev
s b
Ġn ext
x f
en try
h and
o re
i ent
IN G
Ġp ro
C ode
Ġ or
an s
n ot
st derr
in sn
Ġ1 0
Ġp re
2 0
Ġfla gs
A N
Ġby testream
LO CK
p ath
Ġw ith
S ET
a udio
m et
Ġ __
it y
M M
EN O
de sc
o k
Ġ- =
b and
L I
= %
cep tion
B u
able d
d u
Ġu se
m c
Ġl ine
R I
i b
8 6
t ag
a ct
ow n
en ts
un c
zer o
: %
A C
Ġin fo
r iver
k ip
ph ys
in put
int ra
Ġp os
U E
it ion
Ġc l
th read
ar gs
by tes
8 0
" ;
Ġas sert
Ġin dex
on e
la ss
b ack
t c
Ġd c
ĠĠĠĠĠĠĠĠĠĠĠĠĠĠĠĠĠĠĠĠĠĠĠĠ ĠĠ
l er
irt io
ap p
or d
frame s
e st
INVALID DATA
P T
ĠĠĠĠĠĠĠĠĠĠĠĠĠĠĠĠ ĠĠĠĠ
Ġa ml
qu ant
Ġi d
la b
Ġ )
mp le
1 1
sk ip
Ġ CODEC
ĠĠĠĠĠĠĠĠ Ġ
Ġar g
op en
ĠO PC
Ġ" %
Code c
f g
Ġa re
Ġbu ffer
PI X
' t
Ġ( *
U RE
il l
err up
E MU
Ġ last
t arget
DR V
Ġm ode
F T
Ġmem cpy
if def
tion s
o ff
S ize
pi ct
Ġth at
as sert
A T
ur ation
de d
il d
Ġs kip
tim er
> >
size of
w a
s um
Ġa n
fd t
by te
D river
C h
f in
L T
BIT S
sc an
o uld
l ink
Ġcode c
U V
FI X
Ġp ic
Ġf ile
s ps
n al
E L
Ġtr ue
ĠĠĠĠĠĠĠĠĠĠĠĠĠĠĠĠĠĠĠĠĠĠĠĠ Ġ
c reate
s w
RE AD
FI G
CON FIG
] ->
u g
v ideo
Ġf d
reg ister
con d
= =
p th
d o
N ULL
Ġf loat
RA M
ev ent
code d
F O
ot al
E D
ck et
Ġbit s
ĉ ĠĠĠ
Ġmem set
d ing
Ġw idth
ph a
Ġf ilter
ue st
I G
p lay
Ġco unt
H E
Ġp acket
in ue
que ue
extr adata
q p
a io
v c
g r
PC I
Ġ& =
el l
co mm
Ġs ub
errup t
str ing
it or
s pr
an g
c heck
pl ane
lo op
upport ed
ch ine
ile d
co eff
fe at
lo se
B lock
E INVAL
Ġc an
re quest
Ġ 9
Ġstr ide
p p
OW ER
set g
* )
Ġt able
v s
de st
ĠB DRV
Ġu p
re port
Ġby tes
Ġf irst
ĠP I
ĠĠĠĠĠĠĠĠĠĠĠĠĠĠĠĠ ĠĠĠĠĠĠĠĠĠĠĠĠĠĠĠĠĠĠĠ
r t
re set
S tr
al se
Ġcont inue
u ser
ate d
b r
o bj
M D
T O
en abled
Ġ%% "
Ġout put
mode l
I C
d sp
or der
Ġd i
Ġar gs
ĠE rror
. .
Ġn o
ĠĠĠĠĠĠĠĠĠĠĠĠ Ġ
de l
o m
VI CE
)) )
Ġex it
Ġf rom
up date
v p
Ġp tr
ul l
Codec Context
Ġq dev
F RA
ul ong
PR INT
R L
s r
al ign
ST ER
ĠĠĠĠĠĠĠĠĠĠĠĠĠĠĠĠ ĠĠĠĠĠĠĠĠĠĠĠĠĠĠ
Ġd is
4 4
X X
DE VICE
r un
pe ct
if i
Ġf alse
block s
v ector
Ġp c
Ġ load
ĠA R
O N
f n
Ġh as
Ġs n
pa ge
I L
ENO MEM
f c
us h
el per
Ġ" \
k ernel
Ġ IN
ĠĠĠĠĠĠĠĠĠĠĠĠĠĠĠĠ Ġ
se g
( %
Ġn ame
Driver State
F rame
Ġ( %
tr ol
ĉĉ ĉ
ĠĠĠĠĠĠĠĠĠĠĠĠĠĠĠĠĠĠĠĠĠĠĠĠĠĠĠĠ Ġ
OWER PC
er s
Ġpix el
Ġde st
l ong
Ġse ctor
Ġ [
c al
Ġr t
r ix
ar y
d ts
f irst
co ding
ver sion
ĠĠĠĠĠĠĠĠĠĠĠĠĠĠĠĠ ĠĠĠĠĠ
at ch
Ġo st
M I
n et
v dev
Ġch annel
< <
Ġ level
a i
. \
x x
h w
Ġ _
) (
f unc
S P
s ing
3 9
y nc
c p
t op
d s
D evice
RE A
Ġt emp
/ /
m e
A U
EN T
Ġ 64
h dr
h ot
W R
S U
1 5
2 6
Ġb and
Y UV
param s
FRA ME
ed ge
o b
u ma
" ))
ex ception
Ġfor mat
Ġr am
m otion
im it
m ut
add ress
id ct
f ind
op code
5 5
w e
T H
FIX ME
( !
N C
S Y
c a
ic es
tr ies
d ma
STA T
Ġh w
Ġde fin
Ġa b
0 2
Ġp i
PRINT F
C R
Ġdefin ed
Ġw rite
mov q
Ġbo ol
IT E
Ġ le
io s
C on
sc r
c ess
h er
as s
Ġp l
Str ide
b drv
Ġ height
ol d
ind ow
Ġp red
V E
BA SE
M IN
Ġv irtio
St ream
Ġreg ister
Ġcur rent
I S
e k
co re
Ġm v
Ġh ave
I R
p ack
ut e
pe c
Ġlen gth
l b
Ġadd ress
P RE
PE G
PR I
Ġsample s
n s
ĠP OWERPC
Ġ(! (
str cmp
c fg
en code
Ġl ong
( )
re n
Ġm ask
o und
Ġ Y
Ġh and
num ber
V M
EX CP
co py
lay out
A B
Ġ #
n ode
u res
f loat
Ġon ly
de lay
col or
PA GE
Ġst ate
V ER
de pth
Ġb lk
Ġal loc
Ġ he
u x
ĠE X
par se
s d
sy nc
Ġ device
B LOCK
m on
DE X
ME DI
Ġ} ;
US B
co w
an ce
er ty
de n
4 0
Ġi o
sp ace
Ġ MAX
f ig
Ġv er
N A
Ġr un
PI CT
Ġb ack
Ġs d
te st
Ġs ign
Ġl ist
B O
D ER
tr ans
Ġne ed
mat rix
ub le
E CT
Ġ čĊ
r ap
Re g
pre v
++) {
Ġop aque
F E
g a
Bu f
ra g
v q
Ġo ff
f p
cl ient
Ġf il
PC M
ch unk
ur ce
Ġk vm
ĠAV P
i mage
Ġs ps
se nt
ĠPI X
Ġf ield
a ps
l s
Ġ K
Ġtim e
sc si
h elper
M V
Ġch r
' :
' )
err no
Ġ INT
Ġ REG
ma in
Ġch unk
EN D
hand le
Ġm ov
ne ct
Ġpr intf
tr ack
AV CodecContext
r b
0 1
FF FF
m x
ur l
q scale
ip t
F D
W AR
ser ial
ser v
ĠB lock
Ġi st
Ġb ase
ff ff
free p
p t
ro w
op tions
ra y
Ġc b
se d
Ġo bject
Ġk ernel
Ġ log
app end
DE O
bu g
ĠĠĠĠĠĠĠĠĠĠĠĠĠĠĠĠĠĠĠĠĠĠĠĠĠĠĠĠĠĠĠĠ ĠĠ
ĠĠĠĠĠĠĠĠĠĠĠĠĠĠĠĠĠĠĠĠĠĠĠĠĠĠĠĠĠĠĠĠ Ġ
o bject
Ġtr ace
M B
ale t
PICT URE
lo b
lab el
Ġa cc
m peg
Ġc ol
em ory
op y
ra w
PR O
x mm
ak e
MEDI A
ĠM O
Ġal l
Ġs ys
ch ar
Ġa udio
K E
g ot
u al
) \
B E
e f
d uration
op c
po int
Ġ RE
ĠQ EMU
Ġo map
Ġen try
0 8
c ap
Ġc md
Ġex tr
ĠD PRINTF
12 8
f ace
Ġ' %
Ġpre v
B J
c or
Ġ $
Ġav pkt
VAL UE
g o
VI DEO
g pr
Ġin put
for m
Ġcl uster
Ġd r
G A
ed i
MA P
I STER
D O
ex p
ro up
Ġo ld
Ġre q
m r
AD D
R R
ser ver
Ġt ag
h od
alet te
EX T
mple ment
Ġa c
del ta
mut ex
C S
int errupt
a il
op s
ĠP RI
c le
st em
le te
ĠX XX
Ġ );
Ġv ec
Ġr n
Ġco eff
BJ ECT
l i
s g
ct l
Ġh ost
if o
" )
ĠI n
ver t
st ep
OP T
Ġv s
S rc
Ġb ut
Ġk ey
use d
ĠR e
Ġm in
L C
n r
Ġ1 5
t p
Format Context
ĠREG ISTER
b le
4 2
f rom
Ġi mage
ab ort
pl y
Ġ USB
di ff
C F
hand ler
ĠT he
if y
Ġpar am
Ġline size
en tries
TA G
Ġ% "
Ġint er
la c
WR ITE
A LL
L um
Ġre quest
Ġp age
Ġsh ift
U P
t d
RG B
d up
u ff
Ch r
Ġs p
g p
at tr
Ġas f
ĠAV MEDIA
P ER
Ġ ext
a st
ĠĠĠĠĠĠĠĠĠĠĠĠĠĠĠĠĠĠĠĠĠĠĠĠĠĠĠĠĠĠĠĠ ĠĠĠĠĠĠĠ
MP LE
h d
Ġ2 4
39 0
1 000
y n
aps hot
prop erty
B G
AV E
MM X
In fo
c lose
n own
Ġt b
I FT
Reg ion
Ġ ,
Ġ z
un signed
Ġfa iled
l imit
Ġr c
B D
T CG
i se
se nd
ĠW e
or k
y si
Ġon e
)) );
AD DR
Ġsys bus
M MU
Ġ CONFIG
pro g
l l
bo ok
lo t
OP TS
a re
IN FO
ĠT h
Ġ# #
ĠTCG v
Ġv ector
CE SS
o c
Ġi r
IN E
r gb
Ġq u
ĠIN DEX
c ard
r ange
Ġ2 56
k en
Ġsl ice
O FF
CT OR
Ġsh ould
Ġc opy
f ifo
mm u
L B
cpu s
we ight
a y
se ek
Ġop en
x a
st ore
Ġ* (
CH E
N T
p ps
i ct
N ING
MO DE
feat ures
Ġt otal
emory Region
con nect
mm x
w indow
ma c
malloc z
v e
D IO
ĠĠĠĠĠĠĠĠĠĠĠĠĠĠĠĠĠĠĠĠĠĠĠĠĠĠĠĠĠĠĠĠ ĠĠĠĠ
STAT US
) [
he ad
Ġm m
ysi cal
l uma
n on
y uv
Ġbu s
Ġc or
d ct
) *
ĠAR M
se l
F UN
pc m
a x
B it
Bu ffer
N OPTS
ref count
cl ip
bo ot
ar k
0 4
26 3
Ġo ver
Ġnum ber
Ġp er
A S
Ġw ill
* *
in valid
po c
el y
RT IO
Ġup date
f rag
c lock
ct rl
R D
ĠEX CP
le m
WAR NING
0000 000
pl ug
ren ce
Ġp h
end ing
c nt
d d
p art
b d
0000 00
ipt or
ms g
', '
ug h
Ġv ideo
ĠS D
Ġm otion
al pha
CO DER
is c
N G
fl ush
F A
Ġ DE
x l
q iov
RA Y
C C
t otal
set up
de fault
lo mb
P PC
Ġt s
Ġf ind
et a
Ġal ign
m ul
Ġg uest
2 000
def ine
dir ty
" \
ĠS E
q dev
e ded
L K
Ġco mm
CON D
3 4
S O
U n
se s
met adata
ex it
V C
u id
ĠS PR
ĠT O
Ġr d
Ġsn printf
m y
Ġu sb
Ġf l
t ile
re al
Ġ+ +
AV FormatContext
Ġi de
Ġto o
Ġop t
Ġir q
SH IFT
ĠAVP acket
le d
av g
Ġq dict
P UT
Ġs upported
p ing
Ġi ov
Ġu v
ic h
ow er
5 0
ai lab
Ġ errp
ar ch
ret urn
ĠV I
Ġid x
c lass
ms r
g ain
Ġtr ack
b l
lob al
C LA
comm on
C lass
er ate
HE AD
p m
Ġ% [
AR D
back ing
go lomb
Q EMU
f er
L S
S ER
Ġ status
ifi er
G ET
cr y
si d
ĠI f
SI G
Filter Size
(" %
er ic
is itor
Ġs m
+ =
PI C
Ġ ^
AU DIO
ailab le
Ġp ort
ĠĠĠĠĠĠĠĠĠĠĠĠĠĠĠĠĠĠĠĠĠĠĠĠĠĠĠĠĠĠĠĠ ĠĠĠĠĠĠ
i ctor
Ġm on
U M
i e
m o
NO NE
c el
r y
Ġin line
ol l
f r
p ed
NA ME
Ġ1 1
LI ST
Ġn ode
C o
en sion
it e
Ġm ust
Ġ! (
Ġcol or
O UT
un it
Block DriverState
Ġpi cture
) :
mplement ed
IR Q
r x
Ġ left
ur face
ĠM B
S W
an sl
i z
q dict
ms a
MI PS
l um
so ck
p ass
Ġs pec
str dup
v ar
RE F
Ġ MA
de c
B R
le ase
ĠP C
TA IL
FI LE
i ps
Ġs pa
Ġen c
H O
Ġ static
Ġt est
sp a
cluster s
FE AT
1 3
at io
et ers
act ive
Ġp o
Ġ local
Ġ lo
ar m
bit map
-- ;
Ġan y
ĠTh is
O bject
met hod
H CI
Ġ low
E n
FF ER
Ġspa pr
io c
ĠĠĠĠĠĠĠĠĠĠĠĠĠĠĠĠĠĠĠĠĠĠĠĠĠĠĠĠĠĠĠĠ ĠĠĠĠĠ
a w
PA PR
Ġinit rd
L ist
se ction
pre sent
In valid
it le
Ġv p
us b
if ic
r i
fd s
mm io
Ġoffset of
Ġfil ename
Ġ CP
I P
Ġ FIXME
Ġsc ale
INT ER
Ġdo es
E K
ĠA C
Ġt op
out ine
en ce
g roup
fo re
gp io
Ġ ev
se c
de bug
Ġver sion
c ase
D S
Ġ J
CLA SS
c all
Ġex ception
S PR
BU FFER
n ing
ph ysical
ĠK VM
g uest
mov e
Ġ10 24
O BJECT
u cture
ic s
pa rent
ĠVI RTIO
' s
D ata
Ġ12 8
spa pr
Ġse g
M S
d own
OR T
d b
Ġ ]
m si
Ġref count
coeff s
Ġ} ,
Ġf ill
Ġin valid
ov er
p ck
c an
at ile
SE CTOR
1 00
T RA
ic al
Ġ5 12
dis play
U R
Ġm y
as pect
ĠFF MIN
s ys
4 8
Ġc c
2 5
f id
O F
Ġa cb
CO L
SA MPLE
r ing
ial ize
Ġacc ess
CF G
EL D
ĠTO DO
Ġsc an
feat ure
f i
B us
i as
l un
t itle
ut h
ix ed
i ction
le ct
Ġstr len
Ġpar se
fa il
b ar
m od
qp el
TI ME
C MD
Ġm x
T ION
f req
Ġp ath
on ly
Ġcon fig
file s
so urce
Ġav codec
Ġhe re
" (
1 4
M PEG
++ ]
L EN
k vm
n v
r atio
con trol
ĠM K
f w
l ing
B LE
E rror
Ġf ree
ma chine
sy stem
Ġ' \
ith er
Ġhand le
FI ELD
SU B
ĠAV Frame
Ġ zero
un pck
E nc
v ga
Ġsc si
Ġ" ,
Ġuse d
wa ys
[ (
un ref
* /
T o
\ "
P ar
f printf
l x
p unpck
OFF SET
i ck
st e
ro sk
rosk a
Ġa p
as m
k nown
DE V
ĠM SR
ĠD evice
P O
Ġv nc
Ġr ow
el f
R B
" ),
)) {
x FF
cmd line
ĠG et
0000 0
Ġp ts
l p
Ġ ot
L Y
ID evice
Ġdi ff
io us
Ġ. ..
Ġd ir
V LC
co un
read y
s f
Ġs um
Ġa io
serv ed
Ġv c
Ġthe re
r s
Ġb ios
ol atile
-- --
Ġres ult
KE Y
Ġr ange
Ġdo uble
ar ray
Ġwh ich
by testream
c ell
Ġs upport
res h
p or
la ce
ig r
Ġhw addr
j ob
ĠĠĠĠ čĊ
ĠAV Stream
Ġf ound
Ġby te
s se
le ss
BU S
Ġd sp
Ġma chine
w b
ue ue
Ġq cow
p en
v ec
Ġc lose
Ġwh en
qu i
STA RT
TAIL Q
Ġpl ane
ĠĠĠĠĠĠĠĠĠĠĠĠĠĠĠĠĠĠĠĠĠĠĠĠĠĠĠĠĠĠĠĠ ĠĠĠĠĠĠĠĠ
bo ol
0 3
D is
2 56
Ġx en
Ġ IO
Ġp ps
Ġde sc
ov e
so cket
CO M
s a
str ucture
Ġm at
inter nal
DE CODER
r ot
US ER
ĠSE EK
igr ation
P P
u mp
ĠMK TAG
CA P
Ġn ow
cl k
tc g
le g
Ġsh ort
Ġq p
CO UN
S D
e g
V P
p alette
LO AD
w ord
Ġc reate
l ice
AL IG
FEAT URE
x F
is a
( '
Ġst ore
M C
irt IO
FD T
k ely
ac b
g lobal
a ch
tl b
j peg
SC SI
Ġa ct
qu ence
M ER
I F
Ġs ig
Ġd one
D e
D MA
x en
Ġframe s
gen eric
PA RAM
Ġreg ion
% %
im g
init rd
CH AN
ifi ed
U SE
c re
c pl
Ġ2 0
I nc
r ight
Ġp art
Ġblock s
c ont
Ġv dev
Ġ== ,
Ġchannel s
Ġd on
ch ild
++ ,
( ))
Ġma y
Ġs y
ĠM V
to m
l an
comm and
Enc Context
comp lete
HEAD ER
RE SS
al t
av pkt
1 8
s ave
T RO
w ork
b c
j mp
ab ac
as f
p te
INT RA
Ġtim er
v irtio
Ġth an
desc r
* (
si mple
p du
ab s
CO W
STA TE
se q
codec par
insn s
id c
IO Context
Bit Context
Ġm ap
Ġ3 1
sh ort
F P
ĠV NC
f io
m ents
on ent
COUN T
M X
p ending
cb p
d one
Ġ url
Ġv m
ĠĠĠĠĠĠĠĠĠĠĠĠĠĠĠĠĠĠĠĠĠĠĠĠĠĠĠĠĠĠĠĠ ĠĠĠĠĠĠĠĠĠ
band s
Ġp pc
Ġc le
ag es
P H
l in
Ġtr ans
sn apshot
Ġmon itor
E x
E IO
Ġ DEBUG
d x
ĠT I
% "
o se
Ġre al
Ġp a
ĠP A
Ġde l
LA Y
si de
Y V
at or
DE C
ĠP PC
m ult
L U
ref ix
Ġqu ant
Ġre set
f ter
u c
S lice
Ġv ar
Ġp b
Ġ1 4
at ive
Ġbe st
ts p
O C
un ction
im e
ĠM emoryRegion
re o
Ġj ust
BG R
F X
FI LT
Ġ es
4 20
s upported
-- )
ter n
vector s
EN C
d t
k e
ĠĠĠĠĠĠĠĠĠĠĠĠĠĠĠĠĠĠĠĠĠĠĠĠĠĠĠĠĠĠĠĠ ĠĠĠĠĠĠĠĠĠĠĠ
pr of
sub region
Ġde pth
xff ff
Ġcomm and
v d
wa it
p add
st er
or m
N R
Ġf e
I DE
] ]
AL E
p ad
Ġop tion
3 0
t ell
Ġb S
Ġde scr
V A
W OR
b pp
Ġm peg
Ġg b
co ord
Ġd ct
peg EncContext
' ;
real ize
Ġf w
ĠB LOCK
uv linesize
c abac
Ġl um
fa ctor
Ġal pha
sl ices
di rect
3 1
M L
Ġm et
Ġch roma
Ġbu ild
g in
Ġop tions
F OR
CK ET
list en
AC CESS
b reak
prof ile
Ġpr int
Ġse nd
FILT ER
Ġp te
s m
Ġi p
Ġm ult
res p
Ġso ck
d log
Ġc s
Ġtc i
b h
b ios
ĠFF MAX
IN PUT
er y
ag ate
CA CHE
P os
C B
c he
T P
0000 0000
A CT
has h
ĠH AVE
x c
ir p
) >>
ul ate
part ition
i an
AU LT
Ġen code
ex ec
f b
Ġ ID
er t
ot h
pr int
ab il
Ġin sn
Ġso me
RE Q
Ġ(( (
c v
as ync
li kely
[ ]
MO V
Ġ event
pr ot
pred ictor
O K
r ac
) ->
NE L
F AULT
Ġ1 3
c y
co ef
IN IT
oto col
g ram
p id
ST REA
Ġerr no
N AL
isc si
Ġav priv
stat s
res sed
F a
irq s
42 2
Ġdst W
Ġ~ (
Ġu ser
DI R
T X
o cket
do uble
C ould
Ġalloc ate
e b
g ic
Ġc all
Ġex p
T B
d iv
du mp
AB LE
Par am
Ġh igh
to ken
] ));
t ing
size s
ansl ation
AR T
lac ed
O p
rd ma
Ġp xa
an ch
Ġnb d
edi a
Ġr gb
prop agate
f ull
st amp
ot tom
Ġw rit
time stamp
Ġde c
ĠO P
BA CK
Ġbo ot
H T
N D
Ġr s
Ġcon trol
ca use
D st
} ;
Ġd uration
sign al
main ing
Ġn on
en able
1 9
ĠC C
T R
Ġt lb
Ġun it
qu al
Ġi scsi
Ġc r
Ġc ontext
IO S
ain er
Ġint errupt
res ample
Ġdel ta
SY S
s ch
Ġn et
bit stream
mov i
ĠM I
p oll
ff f
e rence
Ġs ame
Ġv olatile
Ġw as
Ġal ready
Ġst ep
ĠC HE
Ġpr op
ĠCHE CK
en ded
not ifier
) .
n z
t ed
ro und
Ġal ways
ĠM P
Ġ serial
Ġot her
s lot
x B
Ġde f
dd ress
an k
Ġl d
Ġ! !
ĠS C
ĠB LK
E V
on ents
Ġt ile
ot e
Ġbe fore
En try
Ġm e
SA S
REA CH
Ġ* =
as Context
ĠN BD
ro ugh
AN D
A SE
n ow
6 8
ĠI S
N ET
x or
or g
Ġm sr
ĠĠĠĠĠĠĠĠĠĠĠĠĠĠĠĠĠĠĠĠĠĠĠĠĠĠĠĠĠĠĠĠ ĠĠĠĠĠĠĠĠĠĠ
ĠQ TAILQ
wa re
ON LY
o y
Ġne eded
table s
pro b
] ))
UN D
Ġco uld
extr a
U L
res ult
Ġpixel s
e lem
ĉĉ ĉĉ
Ġ ->
Ġm c
re lease
spr ite
U PT
d info
t ask
value s
ĠRE NAME
] ];
w in
NO ACCESS
ĠBlock DriverState
cry pt
FO REACH
F ile
on se
iov ec
A l
w o
or b
dr m
Ġ>> =
p to
t em
Ġval id
d p
Ġs pe
ap ter
ĠV P
BO O
an es
bu ild
Ġfla g
) ];
H D
Ġtr y
o le
f low
Ġr m
ĠD I
Ġm ore
ache d
un lock
ĠA D
R C
Ġ2 55
ĠM IN
alloc ated
AR M
Ġm is
ap h
ĠG ET
ang ed
g y
w h
re rror
SC ALE
8 000
S SE
r w
er ation
mov d
pre c
seg ment
H W
Ġi mplemented
Ġh dr
ac y
an up
Ġback ing
ref erence
field s
gr aph
2 2
Q U
w rit
et er
ER O
Ġop code
so le
B P
g no
[ -
l pc
Ġs pr
map ping
av ed
r nd
STREA M
s or
Ġen um
UN K
44 4
SY NC
Con fig
Ġr a
CT L
) &
/ %
S ION
T ype
ĠĠĠĠĠĠĠĠĠĠĠĠĠĠĠĠĠĠĠĠĠĠĠĠĠĠĠĠĠĠĠĠ ĠĠĠĠĠĠĠĠĠĠĠĠ
E LE
s urface
v id
w ap
mat ch
trans fer
FUN C
a uth
off s
Ġl ink
ERR UPT
9 9
O ut
st op
AB S
R Q
Ġextr act
cle ar
Ġint o
str oy
buffer s
ĠG T
Ġcl ient
Ġrt as
A UT
E C
Y PE
Ġm an
decode d
ĠGet BitContext
Z ERO
lo or
Ġm xf
CPU State
10 24
ark er
Ġfl ush
ta ch
Ġpro cess
ĠMI PS
ch ange
Ġe ach
Ġso cket
P tr
dr ive
__ ,
Ġ( ;
LO NG
ĠS et
ang le
p al
p and
INT ERRUPT
a it
Ġ em
co ld
ch an
ĠF W
F S
Ġph ys
Ġm app
ĠPRI x
t m
ac cel
i cture
Ġf mt
CT ION
ĠDE SC
Ġ LOG
ce ive
est amp
ok up
ADD RESS
: :
M SI
Ġbe cause
xff ffff
v t
si ble
set prop
a pi
t ree
at ing
w s
Ġ*) &
an sp
Ġth en
Ġth read
AD PCM
H e
p as
s pec
fil l
ĠC h
' \
t en
xf er
trans form
es c
CPU X
Ġq mp
ALIG N
ĠTI FF
Ġa fter
up er
Ġdescr iptor
av ailable
! \
l it
N UM
Ġp alette
Ġcon d
Ġop ts
Ġtim estamp
prog ram
) ",
CT RL
ĠR O
comp ress
TI MER
ALL OC
h igh
Ġq xl
7 0
D C
e fs
Ġs ce
CO MP
ower PC
A r
E S
m it
Ġb ad
Ġp ass
ĠQ LIST
pa y
D ict
G O
u i
dr c
Ġo s
Ġu sing
ac cess
frag ment
leg al
w rap
ĠAV CodecContext
g g
Ġat om
dis card
] *
Ġi mm
op tion
ĠP RO
fla sh
V GA
p ost
v ram
HO ST
Ġm ake
ĠS W
v i
Ġ Z
Ġc ache
ch ip
IN D
res sion
fa st
re scale
gb c
ĠQ COW
mt c
comp at
v a
w r
Ġ1 8
ĠĠĠĠĠĠĠĠĠĠĠĠĠĠĠĠĠĠĠĠĠĠĠĠĠĠĠĠĠĠĠĠ ĠĠĠĠĠĠĠĠĠĠĠĠĠ
Ġprev ious
Ġv irt
se quence
PE L
Fa iled
pay load
E A
] ),
av ail
Ġr ate
offset s
cep t
cor r
k v
Ġa st
struct ion
v r
CP I
ĠI SA
re ply
Ġc al
Ġde lay
sc al
r us
Ġab ort
; )
h p
Ġv a
ĠN V
m ux
Ġv ga
G B
fe rence
I ZE
ir ror
ang es
Ġs lot
Ġn r
UE ST
a chine
o ur
p dev
Ġp fl
Ġq object
PRI d
Ġ RAM
co pe
Ġe p
p refix
ĠS O
SE G
FLAG S
b p
f ixed
ĠA l
Ġvalue s
cmp int
N S
se n
sum ed
2 8
] +
h i
er ge
Ġv host
MA T
DI SC
Ġuv linesize
ĠS H
input s
id ge
T D
m ix
CO P
cor outine
f x
Ġn al
pect ed
K T
in ed
le ment
b i
ĠT YPE
MU X
S ub
Ġo c
emp ty
code s
code book
dst Format
hot plug
re en
ĠP G
Ġdis play
G IC
e ax
ĠAV Filter
Ġs a
Ġf ull
Ġpr ot
" ));
Ġre qui
Ġg ot
Ġav ailable
D P
ĠF UN
A ST
q xl
EX P
S PE
Ġs i
rt p
Ġal low
at tern
ĠĠĠĠĠĠĠĠĠĠĠĠĠĠĠĠĠĠĠĠĠĠĠĠĠĠĠĠĠĠĠĠ ĠĠĠĠĠĠĠĠĠĠĠĠĠĠĠ
Ġse cond
Ġcb p
rc on
NO T
si ve
ĠC on
CR Y
re alloc
PA T
o ot
p itch
name s
NO N
Ġp s
un likely
Ġe lem
Ġop c
ĠQ Dict
Ġac pi
b a
tl s
sing le
CHE CK
L INE
Ġ DEVICE
ip her
ĠC o
BU F
Ġtable s
DISC ARD
R X
g uid
p pc
at us
ex cp
ne on
De code
F LO
Ġi gno
Ġf s
Ġor der
not ify
( ;
2 1
Ġad pcm
Ġex ec
be gin
rap h
L D
g n
n ic
s core
w d
src Format
w ith
ĠN AL
ps rl
ST R
ing le
OR Y
Ġy uv
sw ap
ension s
A P
a ction
Ġr ound
Ġpo int
A ddress
] (
ĠC heck
CO RE
IT H
fid p
Ġl i
t ext
Ġ1 000
G RAY
f ac
3 3
G P
j ect
C UR
Ġs u
Ġg o
ir rus
m is
v irt
Ġ4 0
M emoryRegion
br anch
Ġseg ment
Ġm od
EN ABLE
** **
F L
b rcon
s z
ĠM E
Ġgen erate
i mm
Ġc ap
Ġav filter
Ġq ueue
ul ar
Ġ3 0
n of
op ort
thread s
ĠMO V
CRY PT
Dis asContext
F IO
be st
rect angle
( ),
x e
Ġs br
o ugh
R Y
X L
Ġs r
Ġextr adata
ĠV irtIO
Ġcor rect
Ġ ;
Ġav oid
th resh
Ġout buf
Ġm p
", "
Ġis a
Ġsm all
ET CH
Ġ"% "
n g
de stroy
Ġm ac
Ġm sg
d ist
pr im
is it
COP Y
Ġp thread
ne eded
Ġsc al
Ġinit ial
coun ts
s u
Ġs ave
ĠS t
cpu id
ib ble
EV ENT
at ure
Ġl imit
ĠG EN
b ps
ĠD is
po ol
ĠCPU State
por ts
v Buffer
ĠAV IOContext
ID X
ĠI P
h y
Ġw ork
Ġdr ive
M ode
tr ansp
ĠPA GE
x FFFF
Ġw rap
Ġen tries
rect s
Ġp ack
PC IDevice
Ġor ig
k s
ĠPI CT
ĠDevice State
i or
r le
t v
st ack
et ch
NE D
Ch annel
Ġmapp ing
e e
or iz
la p
Ġh elper
packet s
H C
U B
x d
cur r
AV Frame
Ġcomp ute
Ġhe ad
D CT
b eta
ĠV C
mat roska
Ġsign al
S LO
s pe
ste reo
c m
x b
ut o
Ġd info
um my
ap ic
LI CE
ut ion
io ctl
DI AN
ĠU INT
pack ed
block size
LE FT
decode r
Con vBuffer
Y S
i mplemented
m fc
co efs
av io
ref s
Ġsp ace
msi x
He ader
P ADD
Ġt er
orb is
\ \
Ġ FI
Ġw ant
RE T
fe ed
ĠMO DE
I MA
l v
Ġ loop
ps r
OPT ION
S ig
d v
h ing
p d
in ce
Ġf in
Ġr w
se lect
ar ge
Ġar m
Ġb ig
TA L
ĠI RQ
dst W
re l
Ġ1 7
Ġq iov
Ġst rerror
EN DIAN
Ġsrc Stride
L o
Ġs core
Ġb r
ĠF or
sub title
Ġso urce
t ap
he d
ay load
l ient
de block
pro xy
Ġregister s
op p
str nc
Ġdst Stride
Ġparam eters
# #
B Y
P TE
h t
s on
Ġb et
Ġb eta
ar ning
Ġm si
encode r
9 6
Ġ ][
Ġs ync
Ġt d
ar ith
3 5
pe s
ĠS ET
ĠD O
WOR D
m an
at er
Ġv isit
ma ster
comp onents
Ġfla sh
d im
ip le
COL OR
Ġc y
Ġm ips
Ġr om
ĠI F
lb w
ĠSD L
fr m
punpck lbw
t i
con vert
Ġmm u
Un known
Ġm atch
ĠPRI d
t ick
v lan
ĠA CPI
ĠO BJECT
DI RE
In put
prop s
TS P
BOO KE
v ol
x hci
um e
Ġin struction
ĉĉ ĠĠĠ
et h
Ġthe m
PRE D
emu O
xB F
m ips
r tc
it ies
q c
r tsp
Ġret val
ĠS PAPR
ĠQ ERR
inter laced
50 9
D U
i oport
m xf
y te
Ġf p
Ġf id
A PI
Ġhand ler
E F
F R
NO W
1 39
I VE
In dex
aio cb
Ġsn apshot
d yn
m sp
ĠC ASE
par ser
pic ref
v ent
Ġg raph
Ġd s
end ian
fo und
V isitor
OR DER
Ġch ange
CHAN NEL
b gr
u le
Ġ elf
Ġi m
of ormat
orm al
h flags
t le
ro ot
enc y
hw accel
V ideo
n er
re co
Ġi c
Ġsrc W
pro m
pro be
descr iptor
T r
T LB
s cope
Ġf unction
Ġre served
Ġl in
w atch
re ceive
Ġc blk
ĠN o
ĠG IC
ĠSW S
' );
p op
v Lum
ĉ Ġ
Ġ READ
st d
Ġdr v
Ġover flow
qual ity
SK A
Ġbo und
TRO SKA
PADD ING
: "
c fi
end or
Ġtr anslation
CE D
align ed
msp el
) -
M mx
V AR
en s
Ġp du
pu sh
ĠS TA
Ġ<< =
ci al
Ġcan not
no ise
TE D
C an
E P
T L
Ġav format
bit rate
pl x
ĠL o
prog ress
ĠT LB
ĠB IOS
Buf Size
S B
h ds
r v
Ġv fio
Ġav g
dr iver
track s
P KT
Ġdecode d
Ġspec ified
T OP
Ġg r
Ġr aw
St atus
3 6
r m
al le
Ġstr ing
TI VE
cre ment
Ġ( "
Ġw ait
Ġse ction
per mut
ĠRe g
Ġdoes n
Ġcle ar
A IO
Ġm o
RO M
, %
2 00
or ig
per m
Ġinit ialize
coun ter
la g
out buf
ĠC H
ation al
ĠR TSP
Ġmode l
m ig
Ġre gs
io mmu
ph b
param eters
VER SION
1 7
v Chr
ct b
Ġde coding
log file
INT R
E O
b ottom
Ġre ference
Ġu s
ce iv
ST OP
Ġcode book
key frame
ses sion
strnc mp
M achine
ĠMA TROSKA
0 6
2 3
U PC
t ex
mb ol
(" _
DI S
qu ir
mo drm
Ġact ual
2 55
); \
th an
ĠT r
pl anes
alloc ate
Ġdecode r
t t
Ġc fg
mp l
42 10
P AL
c d
l at
pr otocol
pl ic
i ents
Ġa bs
al ias
Ġl arge
AR RAY
Ġpre sent
Ġs size
Ġv lc
ĠA ML
Ġdis k
C LOCK
E SP
R ational
Ġ" /
arg v
Ġset up
emuO pts
( -
X A
Ġr ight
Ġun known
cle anup
xffffff ff
h uff
Ġb d
ĠT B
ne ction
Ġab i
UPC AST
) /
Ġg roup
Ġd ist
RA N
ix Buf
ĠD MA
di mm
ss d
Re quest
ocket Address
S L
V ID
re maining
ĠĠĠĠĠĠĠĠĠĠĠĠĠĠĠĠĠĠĠĠĠĠĠĠĠĠĠĠĠĠĠĠ ĠĠĠĠĠĠĠĠĠĠĠĠĠĠĠĠ
Ġfd t
v host
ul ated
ĠĠĠĠĠĠĠĠĠĠĠĠĠĠĠĠĠĠĠĠĠĠĠĠĠĠĠĠĠĠĠĠ ĠĠĠĠĠĠĠĠĠĠĠĠĠĠ
ĠH E
( ));
Ġc nt
Ġr x
Ġpr iv
PT R
iz ation
on f
IN DEX
Ġy et
lay er
comp ressed
du al
AC CE
! =
Ġ MAP
la v
Ġh t
th rot
AV Filter
Ġcomp le
ard ware
in sert
Ġ( &
sb r
Ġpred ictor
e hci
k lass
Ġp ayload
ĠC F
Ġas ync
44 0
T T
v isitor
res level
Ġbit map
Re f
p write
se arch
Ġp ad
Ġen coding
8 00
h tab
Ġd ts
Ġw indow
ram erate
S ample
Ġ label
ĠĠĠĠĠĠĠĠ čĊ
dr aw
tb l
TH READ
. %
K IND
ĠV FIO
I M
s amp
Ġa pe
lo okup
Ġ1 00
Ġd ma
ext ended
Ġh z
Ġ*) (
N B
c u
Ġs mp
en er
DE FAULT
Ġsign ed
o map
Ġs ure
Ġint ra
Ġpro gram
.. .
] ].
e red
Ġc m
Ġf rag
Ġre ply
Ġ1 9
io d
ĠM pegEncContext
CH INE
MEM ORY
abil ities
J PEG
al f
il y
Ġr ai
RR R
I AL
Ġse ek
CON ST
N o
c ed
Ġs b
mp u
im um
CON TRO
ess age
Ġsector s
ĠDI SAS
ĠReg ister
f m
in st
el if
is h
PA CKET
Ġpi ct
resp onse
s addr
en coding
am bd
Ġd v
ĠQ IO
HE VC
CONTRO L
ambd a
' re
B IG
D B
in cr
Ġ4 80
cry pto
ĠCh ar
re ction
de nt
Ġ- -
TA S
Ġe hci
H I
v fio
w l
Ġt wo
PER M
Ġman y
g oto
Ġs ch
cl u
ib le
br idge
Q ueue
S V
V ector
') :
\" ",
4 80
n ibble
SER T
P AR
] ],
Ġd ump
point s
Q PEL
ĠAV DISCARD
TA BLE
dis k
IN SERT
Ġthe y
pos ition
Ġextr a
Ġcal c
B and
f ix
n ut
q cow
Ġ lock
Ġb pp
Ġse lect
def ined
Ġim g
U ID
X T
l ib
un used
Ġq io
ter m
Ġat tr
GO TO
Ġn v
Ġsl ices
scr atch
S ID
lo ts
Ġ2 8
sw ord
i count
ex pr
ac pi
, "
s in
Ġ( -
Ġc a
ro block
init ialize
Ġth rough
Ġen ough
ns upported
Ġmet hod
DIRE CT
D est
M pegEncContext
T h
Ġde bug
Device State
P M
Ġi l
Ġs vq
and i
Ġco un
mov l
ĠPRI u
tem ps
y m
Ġt swap
Ġp as
ĠS IZE
ition al
scan table
check sum
E Q
b v
h b
IN K
++ ];
Ġst l
ET ER
cb lk
Ġpre c
Ġ"\ "\
sel f
PARAM ETER
B ack
V NC
m erge
str ict
ĠS CS
ne ed
Ex p
R ST
RE MO
Ġ2 2
as l
map ped
AR CH
ĠO MAP
ms d
(( (
OW N
---- ----
BY TE
b ias
x C
Ġ server
Ġw r
RE P
C lient
F loat
de quant
en ter
ĠI nt
TE MP
cc ess
pro c
n ip
Ġbit rate
Ġpacket s
con sole
Ġtc p
FOR MAT
> =
h ist
i ma
Ġre sp
cal c
BO SE
P ro
re move
Ġr v
ĠV M
ĠQ Object
output s
Ġab ove
G et
V irtIO
TI C
Ġdi rect
Ġalign ed
B DRV
n ull
p read
si dual
ff t
Ġg ain
Ġr b
fo ur
cr op
Ġpro file
PRI x
eb ml
3 8
S LICE
dev fn
of t
ver se
a pe
r ive
ed it
pe at
res ync
Ġbe en
a red
Ġdev ices
d at
m igration
s uper
Ġv addr
ch anged
ĠM M
sl irp
unk nown
Ġcl ip
Ġs ingle
an ular
ĠG P
ĠW R
min us
ĠRe ad
NT Q
anular ity
b ank
g ed
co m
Ġp str
ation s
ca st
exp and
Ġvm state
c irrus
w t
Ġt p
PC ontext
ĠD C
md ct
SO FT
over lap
nof ail
ceiv ed
Ġs ince
Ġc p
LE V
Ġcode d
Ġhas h
Ġneed s
Ġext ent
Ġmet adata
Ġsock addr
8 0000000
D PRINTF
L ink
in v
Ġm r
Ġo ur
Ġo bj
Ġst uff
ci sion
Ġcont ainer
errup ts
delay ed
VER BOSE
WAR D
iscsi lun
SLO T
Ġrai se
V B
le ctor
he re
Ġto ken
ĠQ DEC
DA TE
GA IN
ĠQDEC REF
B IL
p end
SU C
S PA
m id
in c
ĠFF ABS
LU STER
a si
RE SET
Ġa gain
it em
Ġw ould
ĠE x
sy mbol
re m
se cond
dr am
)) ,
RA TE
sy n
n os
w ise
ue s
nb d
comp ute
format ion
Src Ptr
25 9
H and
c and
f at
u ks
w ard
re ader
he vc
ic ate
ĠĠĠĠĠĠĠĠĠĠĠĠĠĠĠĠĠĠĠĠĠĠĠĠĠĠĠĠĠĠĠĠ ĠĠĠĠĠĠĠĠĠĠĠĠĠĠĠĠĠ
ne g
ĠR T
bo ard
T TO
Ġv q
Ġd river
Ġsrc Slice
FUN CTION
0 7
< =
p q
ap t
transp ort
SUC CESS
' ))
F ETCH
b info
ag ic
Ġpro xy
C MP
al low
ma gic
Ġ2 5
ĠM MU
Filter Pos
D BG
Ġf ixed
Ġv enc
sp lit
AR G
pro cess
scr ipt
e of
re p
add i
Ġex ist
can cel
8 7
b ad
re c
ur i
str lc
Ġmat rix
Ġter m
E B
F ULL
he x
Ġr tsp
iv ec
and ard
dst y
back end
BR ID
r op
Ġs urface
Ġp al
cur sor
Ġcont ain
ĠBlock Driver
Un able
: ",
un map
EX IT
chr Dst
tc p
ie w
ĠSC SI
S er
ar ies
Ġo gg
tile s
ACT IVE
8 259
st y
Ġv Chr
ev er
9 7
P ixBuf
o i
re cv
Ġt i
dex ec
ix el
ALLOC Z
O T
W IN
Ġ edge
at tach
al ac
ex port
str case
ab ove
init ial
oriz ont
strcase cmp
am ily
ĠF D
ta gs
INTER LA
fm ts
) +
C U
m jpeg
Ġ ];
Ġs s
am l
Ġre move
Ġp p
fa iled
SK IP
(% %
Ġcoeff ic
ĠSD HC
abil ity
ELE M
thresh old
I X
n def
Ġp ending
Ġn c
Ġq api
RE S
th ing
Ġk e
Ġpos sible
FLO AT
SPA CE
orizont al
U nsupported
q rt
Ġre port
ext ension
Ġop n
ĠF MT
Ġen able
filter s
MU L
Ġsl irp
E M
Ġi mplement
Ġt x
Ġm igration
Ġd printf
Ġd own
Ġo v
if ndef
Ġst op
Ġuv src
Ġld l
N V
Ġs up
Ġ" );
Ġh app
ĠN ote
Ġst e
res sive
Src Y
mult i
S F
T ask
j son
o us
r anges
re v
ul ts
ste ad
Ġact ive
Ġ" ",
is hed
Ġbe low
DI V
ect ion
zero es
PPC State
ific ation
P icture
ĠN E
Ġbu g
ev m
LEV EL
BRID GE
e rent
p ages
Ġm agic
Ġv Lum
ST O
ĠR TAS
fin al
4 000
D ef
S M
v fp
int r
ur b
Ġ2 1
sc all
Ġcon nect
Ġal so
Ġ6 3
Ġgraph ic
F REG
x A
on itor
Ġp es
pe er
Ġl ib
Ġ\ "
SH A
FT N
Q P
] ][
w av
Ġm arker
Ġin d
log level
Ġen abled
xff f
Ġpstr cpy
g t
g es
n x
Ġp d
av evm
LA N
mem cmp
TS UP
Ġev ery
call back
Ġmat roska
snapshot s
Ġmult iple
Ġil legal
F LT
a ac
Ġi ter
ut es
ĠAV COL
10 1
STA TIC
dis able
Buf Index
iction ary
xen dev
h v
v endor
ĠĠĠĠĠĠĠĠĠĠĠĠĠĠĠĠĠĠĠĠĠĠĠĠĠĠĠĠĠĠĠĠ ĠĠĠĠĠĠĠĠĠĠĠĠĠĠĠĠĠĠ
ĠM PC
ev ents
sh ow
SR C
Ġiov ec
Out put
psrl q
REMO VE
K EN
tr unc
Ġq scale
LO W
iv es
l j
EN CODER
Ġco re
Ġar ray
Ġcomp at
ĠIN IT
Ġcor outine
Ġpart ition
Ġtrans fer
L PC
s v
Ġt ap
Ġv d
ma ps
Ġcon sumed
bus dev
CA TION
mac addr
Ġsy stem
C LUSTER
S ON
de cl
se i
Ġc lock
dev s
vert ical
f loor
s ur
re ctor
tr a
Ġr dma
mm co
MA GIC
header s
Ġpos ition
Ġspe cial
? ?
b t
i zer
u art
Ġ stat
Ġa uth
src W
VI RT
form ance
RD WR
AUT O
fac es
1 0000
c es
m edi
as on
Ġx hci
Ġsh ow
ta il
ler ate
cont ainer
Ġvirt ual
A AC
H ID
H AS
b g
ĠAV FMT
Ġun lock
comp le
Ġformat ConvBuffer
we en
6 0
A udio
b in
c red
e ip
Ġs yn
en crypt
Ġf our
IO Vector
src Stride
inter le
E OF
P owerPC
LA ST
ĠR DMA
ĠU n
link er
ĠBLK DBG
brcon di
Ġp add
ĠA AC
es p
format s
STER EO
lb a
Ġcoun ter
8 139
U YV
b m
s ar
ĠV LC
ĠI DE
serv ice
single step
permut ation
5 12
H AVE
Ġd im
bu cket
DE LAY
ET H
ĠF LA
comp are
ec x
Ġbit stream
Ġres level
met a
Ch ar
ĠWR ITE
L IT
j o
in buf
at om
ĠA U
pr m
Ġin link
pred iction
Ġwith out
eb x
a gs
j ust
re qu
io mem
sd p
ĠJ peg
Ġn nz
tr ace
es cr
Ġk now
Ġcomp lete
Ġparam s
oth read
' ",
d uct
Ġf loor
Ġfor ce
is k
Ġas sum
Ġfilter Size
IG HT
Ġ^ =
ĠPC IDevice
D ither
E vent
V D
W A
f ra
ER NAL
Ġ2 3
MA CHINE
ĠM SI
IT LE
Ġj ob
per iod
INTERLA CED
T ITLE
c at
i h
s avevm
Ġi codec
am ic
ELE MS
d y
Ġs se
er nal
it er
av c
Ġh d
end ptr
sh ake
ĠE L
ĠIn it
Ġiscsi lun
AUT H
ior ity
D ictionary
L V
] "
a ff
m edia
FIX ED
do g
Str ing
ca pe
sd t
leg acy
PH A
PAT CH
S ign
b order
Ġre maining
Ġm kv
il ity
(" \
ĠU ART
Ġ" -
Ġcon vert
ĠT RA
Ġop eration
Ġstream s
ENO TSUP
compat ible
q object
t he
Ġd iv
RE D
Ġin stead
comp ression
Ġpred iction
Ġbet ween
Machine State
Ġste reo
c rc
c ipher
Ġn d
te ct
ĠB S
SW S
IF Y
ĠPRO T
alle l
P acket
P OWERPC
p ow
Ġp id
Ġd x
str start
Ġh p
EN CE
Ġma in
UE UE
ĠQEMU IOVector
L P
R ange
S et
i a
t ol
de coding
Ġc mp
CA LL
EXT ERNAL
5 00
re ts
si st
Ġ/ =
DE MUX
type s
ĠS IG
ip tion
AV Rational
BA T
sw b
ENT RY
Ġdiff erent
SPE CI
reco gn
Ġ ],
Ġg db
ET TE
RA C
RA TION
ĠC MD
ĠO n
G R
W EL
in crement
Ġi ts
se gs
Ġf ol
ue ss
Ġin formation
md k
Ġdst Format
Ġoff s
PRO TO
E MP
O L
d ummy
an ar
ĠR RR
PRI u
INE AR
mo use
- +
a hci
h int
Ġp ost
ot plug
CO ME
md s
Ġen coded
ld q
BA FF
Ġpro b
")) );
Ġev en
Dis play
PATCH WEL
PATCHWEL COME
Ġp e
ar se
Ġthe se
ĠBDRV Q
hy per
/ (
n nz
in s
in line
or ts
ĠP owerPC
pl it
Ġse q
DI SP
time out
pa re
EX EC
Ġpro g
invalid ate
ert ies
B AR
I nt
Ġ unt
Ġa lac
Ġm edia
ize d
ra ise
ĠD CT
Re q
PIX EL
PRE FETCH
MIPS State
C AL
F unc
P er
a uto
m ar
o ice
Ġ ]=
de corr
Ġs PAPR
ad t
sc he
Ġex pected
comp ose
blk dev
scan f
Ġcoeff s
ALIG NED
BIG ENDIAN
O PC
d dr
s sp
Ġ empty
Ġb ps
al ly
Ġm ark
ch apter
dev tree
ID TH
pc r
SW AP
Ġpadd ing
C NT
D OWN
I ST
d ither
l dst
v nc
Ġm id
Ġv f
node s
. _
f ramerate
m ant
n m
re start
re served
con dexec
te red
head s
Ġpo inter
initialize d
M R
} ,
Ġch anged
Ġdi e
Ġtemp or
PRO G
attr ib
MSI X
f ps
m arker
u y
Ġq string
Ġl uma
ĠQ XL
sub band
Ġdis abled
ĠAR RAY
NG LE
Ġmis sing
Can not
rive Info
P FX
a int
in ner
av s
ĠV irt
po inter
alt ivec
Ġlin es
K VM
M SR
f pu
ct s
un implemented
av f
REG S
ĠH F
Ġpr otocol
ord ing
Ġalloc ated
N um
T LS
p ower
Ġi cs
or age
str ip
Ġh ardware
as h
EN SE
Ġco ding
Ġout link
PA SS
Ġptr diff
run ning
Mmx Filter
G HT
W B
r sp
un pack
ĠAV FormatContext
ĠB drv
ĠV GA
Ġfa ctor
ud p
Ġbs wap
dis p
sw itch
*) (
Ġdr op
Ġ!! (
ĠTRA CE
Ġp ages
Ġn ormal
pr oto
Ġl ater
ĠN et
ĠM PEG
AL PHA
ST S
Ġwh at
spe ed
requ ency
s lots
Ġb ottom
Ġav c
MA NGLE
dst Y
US H
__ );
chr Src
Ġver t
pm add
SUB TITLE
To YV
Ġspe ed
ĠFUN C
v addr
Ġn ut
ĠS h
loc ation
Ġx Inc
ms mpeg
Ġle ast
QEMU File
SCALE YUV
su bs
6 3
I MM
P ET
Q UEUE
T able
U AL
l sb
Ġm ight
ed x
RA W
BLOCK S
scal ing
ĠHE VC
Ġunt il
f mul
ps ll
Ġse arch
qu ery
comp onent
(! (
lin es
che s
bucket s
Ġfol low
Ġd mv
ĠAV Dictionary
av r
um ent
Ġ4 8
ĠD o
comp no
Ġfile s
lin ux
deblock ing
] >>
n uma
t f
u uid
ar ound
PA TH
Ġarg c
chunk s
ĠChar DriverState
) ],
: \
R es
g op
g db
o urce
x attr
Ġg lobal
ext ent
FF FD
Ġff m
Ġstr ip
Ġse l
ep el
seg ments
COM MA
str aint
Ġh ls
dev ices
ĠN UM
ĠS e
Ġnot hing
Ġsw s
cr s
Ġarg v
che d
exec ute
Ġfid p
2 7
C SR
r n
u FFFF
v ring
ct ts
ĠAV Codec
ĠQ emuOpts
Ġ** )
OUT PUT
AIO CB
pmadd wd
C ry
g er
q mp
re order
at ures
dr op
Ġr o
out link
ĠV A
Ġse e
quant ize
align ment
sec ure
Ġcoeffic ients
7 7
s mb
im er
ĠD riveInfo
ev t
ĠO PT
FLA SH
RO MA
prog ressive
Decode Context
0 5
G T
f unction
em ent
Ġq pci
Ġ' -
TE ST
Ġio ctl
Ġrequest ed
Ġigno red
; \
W IDTH
h z
Ġa hci
Ġp itch
Ġr l
Ġin et
ĠS T
LA T
vm state
zer os
FA TAL
ansl ate
ENC DEC
" (*
2 9
M BAFF
u FFFD
z stream
st s
Ġc pl
Ġco ef
Ġff io
LE D
Ġband s
vi sion
BIL INEAR
c id
s Context
Ġs plit
Ġf c
Ġ" #
Ġv td
ER NEL
Ġch rom
ĠS YS
mb s
FI RST
Ġse cs
In ter
priv ate
got i
sch ro
C LI
R UN
Ġ EN
en coded
Ġre ceived
chr on
skip ped
Bus Device
Ġap ply
H FLAG
[ %
e si
t arg
re ached
err ide
ac l
iv en
ide nt
ĉĉ ĠĠĠĠ
DI CT
TO KEN
listen er
ĠFI MD
RAN GE
targ phys
M F
r ice
v cpu
Ġ* ,
un ix
Ġd y
la ve
Ġio req
Ġallow ed
COMMA ND
T N
c x
n ess
Ġm ig
++ );
filter Size
Ġcur r
opt ind
rt as
find clk
(; ;)
Hand ler
ĠBDRVQ cow
8 5
S N
S p
l fe
o met
p ol
p num
Ġre l
Ġv st
DE F
Ġde ad
Ġun supported
Ġsm k
Ġigno re
CRYPT O
C D
X MM
l ut
Ġs cr
ĠS A
val pha
Ġis n
Ġ3 6
timer s
ĠAR CH
G UEST
Ġ MASK
Ġs aved
Ġc t
ĠĠĠĠĠĠĠĠĠĠĠĠĠĠĠĠĠĠĠĠĠĠĠĠĠĠĠĠĠĠĠĠ ĠĠĠĠĠĠĠĠĠĠĠĠĠĠĠĠĠĠĠ
Ġpi ix
tick s
ĠSTA T
" (%
U ser
e val
p attern
z z
LA TE
Ġfa ult
sub frame
CON NE
Ġread ing
ang u
Ġfield s
ixel Format
H DR
N EXT
S ocketAddress
e q
f amily
v ide
Ġ layout
in et
at ial
al g
ĠA c
ĠN O
Ġcomp ressed
O M
Ġw ay
bs wap
ĠD CA
cc w
Ġset ting
FA CE
bl t
PO S
IMA GE
M onitor
c ale
l ambda
t k
z ag
re peat
Ġt em
Ġp oll
ig zag
sc e
ĠR GB
Ġback up
are a
Ġph ysical
ĠFUN CC
H AND
mp pc
th er
as as
TE XT
20 6
ib m
IL D
eg er
Ġfe ed
Ġme ans
Back end
P ORT
o hci
il legal
Ġw ord
ĠP ro
Ġst ack
ID CT
ST D
ĠC R
IT Y
Ġ6 0
sy scall
Ġat t
Ġuse s
26 1
Con trol
Ġtime out
angu age
P ic
Ġf ix
co uld
Ġm ot
Ġw here
fa ults
Ġ' :
Ġe b
ĠFF ALIGN
ACCE L
ĠInt errupt
Ġmig rate
D esc
D escr
I MX
W idth
el p
nt ax
count down
Ġbe gin
ly ph
Ġ6 55
region s
ĠCPU s
LI B
EL PER
serv e
Co mp
cell s
Ġpa rent
Ġfe atures
Ġencode r
Param s
Ġrequi red
Ġscal er
STO RE
Ġb oth
Ġm map
ine ar
Ġcon f
Ġop tim
red ir
uint ptr
fil t
VI RTIO
yn os
ĠLo ad
N et
i othread
q h
ur ing
Ġm s
ĠA HCI
ex pected
Ġ% #
Ġst ill
ĠR TP
state s
fl ight
Ġdis card
handler s
FA ST
Ġvar i
Ġcontrol ler
Ġhapp en
recogn ition
7 8
t ure
v orbis
Ġf arg
sc reen
con v
Ġop p
CPU MIPSState
Ġ? ??
Ġle t
PO INT
four cc
b il
Ġ0 0
lo p
Ġp m
Ġp ower
ate gy
Ġh ow
Ġst w
ref counts
sys mem
ke ys
Al pha
UNK NOW
Ġresp onse
- =
R x
] ){
i ff
Ġo hci
Ġq test
is o
ĠT D
Ġse quence
dim ensions
UNKNOW N
) ]
7 6
S AVE
h s
n one
u buf
v olatile
Ġm irror
ut put
Ġd raw
ĠB IT
Ġstr cmp
ĠF RA
PRO BE
ĠJ PEG
e flags
Ġ ERROR
Ġm mx
no m
ED X
To UV
5 2
l r
de lete
Ġs addr
al go
un def
ĠA SE
Ġav i
ĠP O
dst Stride
20 48
Ġmo drm
8 8
C L
U RL
V R
m isc
v enc
Ġp attern
if ormat
and om
ol ution
VAL ID
sl b
RO TT
Ġsub title
Ġli ke
rector y
ROTT LE
em ulated
IN ET
of s
Ġend ian
Ġcheck sum
55 5
VER IFY
lin der
mar sh
A CK
F N
M IT
M ENT
N K
p xa
re store
un ce
Ġd id
ma ke
um b
ĠV TD
Ġne g
inter val
Co mple
S ws
Ġf all
ar mv
Ġcon nection
pc y
PE D
SE L
ag ed
low er
ĠMA C
En code
TTO M
P END
m ot
p io
base dev
back up
Ġmov e
SIG N
ĠRO UND
ĠSH OW
ht tp
yte IOContext
throt tle
-+ -+
m kv
p k
Ġf b
Ġp refix
Ġv src
un supported
ch n
Ġstr tol
ĠH PET
du le
TH ROTTLE
Ġpa ir
tern ate
psll q
B LK
p xor
frame p
ĠV HD
Ġstr chr
wa y
Ġfd ctrl
VIRT UAL
Ġr tc
pl us
ĠO HCI
ĠO pen
uv buf
Ġback end
Ġdir ty
**** ****
lav io
= "
M ask
N X
P OWER
Ġf r
ĠO utput
CH UNK
gr ab
cap abilities
Ġ(; ;)
Ġwr ong
ĠSTAT US
T est
m ark
r r
io req
init ion
pen dent
WOR DS
Th read
com ing
Ġ\" %
SPECI FI
omet ry
5 4
E E
V nc
X F
s regs
s vq
Ġb p
Ġl p
ĠP R
us age
ĠE A
ĠW rite
BO TTOM
AS M
Ġatom ic
Sub Sample
v is
al ty
Ġv ms
Ġ2 04
block er
Ġsrc Format
filter Pos
AN T
ĠAR ITH
Ġcurrent ly
PRO FILE
Ġexec ution
STR U
b state
n ative
in link
ut down
ĠD e
ĠF SL
frag ments
Co eff
MOV NTQ
TIVE C
b S
p outbuf
r ps
v ps
in ance
SI MPLE
cc ontext
Ġcur sor
fl v
not e
Buffer Ref
N OR
V IO
a a
q iv
Ġ TA
Ġf unc
Ġd min
FF F
pa ir
ĠX en
END OR
Ġcmd line
wh ile
ITH ER
Ġca use
rop erty
ĠFRA ME
V ENDOR
a f
i re
v msd
v iew
Ġ COND
re sidual
co ok
Ġse c
Ġlast In
Ġpl anes
Ġfil t
Ġparam eter
Ġwrit ten
Ġhead s
ys BusDevice
RI GHT
Object Class
LAY OUT
B AD
in ation
de red
Ġs z
Ġc rc
Ġb t
Ġ2 6
ĠI t
Ġcode s
Co unt
USE D
sen se
p ename
am aged
it s
Ġd rc
ch s
ER T
sc f
init fn
pre gs
xff fc
gr p
Ġlo ok
pas sword
Ġa pic
Ġt ext
ĠS VGA
pc ms
ĠO bject
ĠH PTE
Ġcomp no
limit s
ARM State
samp lerate
Ġtem ps
marsh al
) <<
f h
l t
Ġs regs
Ġg ic
ip v
sh r
REG ION
Ġwh ole
]) *
ENO SYS
ĠDevice Class
super block
B M
r addr
y stem
Ġb ank
Ġre c
Ġd uring
Ġr ing
ac ct
LO B
MA L
amp ling
ft ell
Ġ# %
Ġcomm on
Ġ40 96
B I
T C
W T
Ġi v
Ġn ever
Ġq pc
ro ken
emu x
up ling
con n
ID R
Ġbuf len
Ġstr to
Ġen s
DI SA
Ġso met
RT C
HW ACCEL
Cry pto
( __
w p
z igzag
de nd
Ġt m
et her
ab ly
ĠĠĠĠĠĠĠĠĠĠĠĠĠĠĠĠĠĠĠĠĠĠĠĠĠĠĠĠĠĠĠĠ ĠĠĠĠĠĠĠĠĠĠĠĠĠĠĠĠĠĠĠĠ
ge ot
ĠM ake
ĠI V
DI MM
Ġnode s
oot er
psrl w
Ġfrag ment
4 00
N ot
S cale
b lob
g id
h ls
i ops
m irror
o red
p date
q test
t on
v ui
bs f
mov ie
OP EN
Ġne cess
Ġcomp onent
Ġmax imum
quant izer
color space
Ġlog out
ĠSCS W
DISA BLE
R ate
W N
x vid
pi ix
us ing
Ġdst H
Ġpro vide
SP AR
Ġio mem
ĠIn put
Ġqp el
Ġcr op
Ġother wise
quir k
EMP TY
W L
in al
Ġre ason
co st
ĠC SR
ĠQ TYPE
write b
Ġen er
Ġe a
request s
padd w
padd ing
brcon d
Sws Context
c flags
e le
la s
Ġw av
Ġu vm
Ġr ce
Ġst andard
Ġde tect
Ġe ither
unit s
Ġes p
ĠCon trol
Ġke ep
P ort
c ert
p el
č čĊ
Ġ LOAD
le ep
lo ader
Ġp lace
Ġr oot
amp ed
fs P
LI MIT
event fd
ds dt
connect ed
REQ UEST
allow ed
5 9
G TH
s PAPR
st h
al k
Ġy alpha
Ġtr k
mv d
In it
SH ORT
Ġpro be
Ġid ct
Lum Buf
Chr Buf
GP IO
A SYNC
B T
Ġb l
al en
Ġv orbis
Ġerror s
Ġspec ific
ĠAl loc
Ġassum e
X VA
o u
at t
Ġl c
IO C
Ġx vid
pre cision
SC R
Re ad
Ġcle anup
sur faces
O n
b n
g si
h alf
v f
al p
Ġm h
ic ast
io Context
DE PRE
Ġch an
read v
cl amped
Ġat oi
WARNING S
ĠAD D
Ar ch
prim ary
dyn amic
Ġ"\"\ \
linder s
. ");
v net
Ġc re
Ġ" <
Ġv lan
ig ger
ĠM UL
sh mem
sign o
hw def
ĠY SCALEYUV
DIR TY
SPAR C
Ġiomem type
DEPRE CATION
B IOS
x alpha
Ġv ia
ĠP L
ĠS R
ĉĉ ĉĉĉ
tl ing
MO N
me an
Ġmov ie
Ġinter laced
Ġcor r
TRA CK
clu de
7 4
G EN
X B
v mppc
lo ss
Ġd p
Ġl pc
get length
Ġin c
ĠN ow
ĠS TO
bs p
Ġk vmppc
ĠE n
Ġe e
param eter
MO NO
for ce
gr anularity
*) &
Ġinter nal
Ġpo ol
ĠAC CESS
ĠIO MMU
ose n
Ġimm edi
Ġscal ing
ĠSTO RE
h alt
p tion
en um
Ġp error
Ġq error
ss se
do main
cor rect
prim aries
vLum FilterSize
STRU CT
J ob
f un
s asl
re nc
lo on
con sumed
ĠM MX
ol den
sp hb
start code
DI A
Ġmis match
6 6
A TE
c sock
d m
v basedev
re size
re try
se lector
Ġs mb
Ġm u
Ġd ummy
ĠAV PROBE
Ġde n
CPU PPCState
Ġopt arg
Ġcond ition
ĠCo mp
Ġactual ly
S PC
b nd
Ġ er
Ġ RA
Ġs sd
Ġc x
Ġb ar
Ġp cc
ex act
ing s
ĠP XA
LO CAL
ip red
ĠC reate
for ced
queue s
row s
uff ix
Ġopen pic
DEV S
EA GAIN
5 3
L en
k ind
x m
at form
Ġt ra
Ġb x
Ġv sid
=% "
Op tions
SSE D
Ġrequi res
IM G
rem ote
D V
c q
f arg
Ġ ER
se cs
Ġs ide
Ġ1 000000
ot lb
ĠN ot
read b
ME TA
Ġx mm
ĠF P
MP V
ft p
Ġheader s
Ġpar ser
Ġab out
prev ious
writ el
FL USH
opp able
Ġht tp
G LOB
R LE
U MP
co dsty
tr k
Ġcase s
Ġsize s
ĠS M
pl ate
write v
Ġchr Dst
Ġcluster s
Ġkey frame
SIG NED
padd usb
Tr ack
goti ate
Q XL
b ig
o ck
q string
x E
Ġre lease
ad apt
Ġin st
ph ase
last In
arg c
ĠX EN
comm it
Ġrt p
FUN CS
qui re
ĠEL F
Ġ204 8
= &
G UID
O B
O FLAG
Ġs uper
int errupts
Ġv ring
ĠQ CRYPTO
DI RAC
PA CK
Ġma ster
ld l
Ġcur l
prop erties
RO UND
extr act
Ġdis p
Ġpc m
Ġalloc ation
HCI State
TRA NS
ĠAc pi
D ev
F RO
l uks
m i
x Inc
re sid
ul ation
LE M
AR Y
ĠE OF
ĠCPU ID
ĠY UYV
Ġalign ment
ĠTr anslation
PAR SE
Ġnecess ary
X Inc
m ch
p f
co lo
Ġd up
Ġl v
ro ad
Ġ3 3
Ġe addr
fl ip
lac ing
SO CK
pen alty
ĠOn ly
ĠDCT ELEM
emux Context
E PC
I V
T he
a ded
b at
s pi
w ar
Ġ COM
ra in
Ġtr ap
ĠU pdate
ĠGP IO
lop py
U ART
m en
u ous
or a
la gs
Ġr le
ĠP RE
NE LS
FO UND
Ġbase d
lac es
ĠOP EN
K S
f is
g l
Ġt ab
Ġv ol
Ġg iven
Ġu hci
Ġh uff
CO E
ĠFF SWAP
scale d
NE W
ĠW h
mmx ext
window s
work around
Ġcall back
Ġld q
sth rough
= \"
C ow
a fter
k bd
t ight
u ed
y per
in str
in ux
Ġs x
or dered
si s
Ġm ux
ic c
dr ain
ĠC M
Ġas m
ĠU P
Ġhand led
char dev
TRA CE
CHAN NELS
Ġdef inition
Ġsi mple
ĠAlloc ate
road cast
0 10
I dx
m map
n iov
q bus
t u
Ġre p
al ways
al loon
an al
tr ail
as sign
ac cept
ce ed
us wb
SI TION
Ġgen er
by pass
Filter Code
ĠPCI Bus
Ġbuffer s
pack uswb
Ex t
pas ses
SEG V
Ġfin al
N BD
P LA
t uc
ĉ ĠĠĠĠĠ
Ġg nut
str len
IN C
)) ))
DE N
ĠP H
sc onf
AL TIVEC
cl ut
req s
56 5
IG H
mac roblock
FA I
BACK WARD
Ġgnut ls
A I
D SI
G N
H AL
_ ##
re vision
Ġf ps
id s
Ġq ed
DE D
as ub
ĠĠĠĠĠĠĠĠĠĠĠĠĠĠĠĠĠĠĠĠĠĠĠĠĠĠĠĠĠĠĠĠ ĠĠĠĠĠĠĠĠĠĠĠĠĠĠĠĠĠĠĠĠĠĠ
ter min
ĠB yteIOContext
Ġmem move
CPU S
ĠO T
BU ILD
SR SC
11 1
AT TR
net dev
DISP O
Ġprog ress
chapter s
ĠBDRVQcow State
Ġeb ml
Q IO
T ER
Ġc red
Ġre n
ch rom
ac ity
Ġch ild
error s
ĠC ALL
SY ST
Ġrequest s
B ad
s pect
Ġre play
Ġp in
ĠAV IO
ext ernal
Ġl r
PR OP
NA TIVE
Ġlo okup
sen ce
ee prom
Ġmsi x
quir y
Ġht on
X State
o ok
r ng
s ort
le t
Ġ" '
Ġx er
ne gotiate
be low
SER IAL
EA X
ĠsrcSlice H
J peg
d py
p at
p ret
Ġp x
bu gs
Ġh alf
pi pe
ĠS K
ev el
Ġvector s
fr ac
Ġcal led
STR ING
) ((
B ase
n y
Ġ FILE
de faults
Ġre st
Ġm erge
Ġg uess
ĠA udio
io cb
ak es
ĠM od
fo ot
ret val
Ġdis able
PRI V
Ġext ension
Ġprop erty
samp ling
ĠInit ialize
men u
B yte
R V
Ġt printf
el en
il k
Ġl si
ty pename
mb aff
), "
offset of
Ġwe ight
YUV A
we bs
vq s
ĠIn ter
realize d
sm k
psr ad
ener gy
CLI ENT
Ġvari able
C reate
f pr
Ġf etch
Ġre store
Ġ/* *
str ategy
Ġin sert
buf s
ac c
CO D
ĠT CP
sh ri
Ġe val
Ġ. .
ED GE
ĠRE T
TCG Context
over lay
Ġfe ature
FOR WARD
plic it
TEMP LATE
syn th
87 50
foot er
A ddr
D T
id sp
tr l
ext end
Ġ: :
PI LE
DI SAS
ud a
format ConvBuffer
ĠL IST
ib ility
Ġhand ling
attr s
round ing
Ġbound ary
Descr iptor
3 00
E lement
M ET
O VER
S CORE
h ole
Ġ edit
Ġb nd
ad v
ĠA ll
ate s
dr oppable
mb mode
SI DE
pl anar
Ġ' /
temp or
sb d
Ġsd l
Lum SrcY
resh old
break point
Ġsu ch
Ġtempor ary
FAI LED
ĠSK IP
E FAULT
O ST
c g
ar ter
ff ered
la sh
Ġw arning
Ġl it
Ġver y
ĠRO M
bi weight
ĠDis asContext
tra fo
ĠUP DATE
D ec
F sContext
p g
q obj
Ġt y
al fp
Ġ" +
RE AL
pu l
ĠĠĠĠĠĠĠĠĠĠĠĠ čĊ
ĠM FX
ref etch
ĠB ad
Ġx x
ĠC le
ph dr
pkt l
Ġdst Y
om e
Ġle g
ual ity
MS G
CHAN GE
Op tion
spec ific
ym ist
Client State
strlc at
strlc py
DEMUX ER
ilk ymist
; "
H ost
] <<
p in
p de
Ġ* _
ut ex
pr iority
DE SC
and le
put il
ĠV nc
CK ER
request ed
SU PP
cy cle
ĠPG M
+ (
D M
a u
p x
s mp
t co
Ġc lass
Ġ- (
frame size
ĠI VI
Ġ' ,
Ġ** )&
Ġfil m
BD MA
Ġsomet hing
GLOB AL
H IGH
Q u
n an
v st
Ġs f
int eger
Ġb h
Ġb in
Ġ" .
ĠA dd
tr ap
ma ch
Ġo i
Ġw i
Ġr cc
ro ss
ĠB AT
Ġse n
ĠF LV
PA U
irq chip
pro duct
fin ish
ifi ers
Ġ(% %"
mon itor
UP DATE
Ġz Sig
LEN GTH
word s
tem plate
Ġspr ite
:: :"
hp et
Decode r
4 0000000
] \
e ob
p v
or ing
Ġa m
Ġb m
Ġm quant
Ġh otplug
ro ute
ĠS ocketAddress
ĠT PM
Ġconst ant
ol ve
Ġ(( *
Ġun used
alloc ation
Ġfa st
lc d
PT H
fin ished
Ġinter face
scal ar
ĠSO CKET
ens ation
insert ed
4 3
V irt
Ġi ma
Ġq mul
ĠN B
ge ometry
Ġstr cpy
vm e
ls f
Ġany thing
ĠSH IFT
Ġind icate
ĠNO TE
bil inear
COD ING
A SH
P XA
R S
V FP
f ir
g pu
n orm
x pos
at ely
Ġt ake
Ġf g
tr anslate
Ġw in
ĠP ORT
ĠS S
ĠS kip
EN CRYPT
base d
CH ROMA
qu arter
inter lace
Ġarg ument
SER VER
cpl x
guid cmp
MUL TI
ĠchrDst W
h ift
s aved
t ce
Ġ COPY
an ity
Ġq c
mm and
ĠT T
ap ply
Ġj ump
ĠF a
Ġpc ms
hw ctx
mon o
MEDI UM
div x
vChr FilterSize
Ġprob ably
Ġens ure
Ġren der
Ġleg acy
I SA
I mage
[ ((
d now
i mpl
l im
v op
in val
le a
le ak
Ġre ct
un init
Ġg tk
Ġav r
Ġff server
Ġsrc Y
ĠV isitor
ĠV HOST
ĠD ata
ĠF rame
sub packet
12 7
cmp hex
ient ation
ENT ER
Param eters
writ ten
rep lace
medi ate
Ġvms vga
) ]);
l f
in ode
se p
Ġp de
Ġv ui
Ġq crypto
Ġr tl
RE NAME
get time
OR I
LO DE
sig set
fd ct
fd ctrl
mov ed
UN SPECIFI
sub mit
pic s
Ġlow pass
To Y
QU ANT
EXP LODE
ĠDis play
interle aved
geot ags
SYST EM
UNSPECIFI ED
B C
C LE
P L
Q COW
W EB
s dram
Ġi mp
Ġh dev
Ġh orizontal
Ġl ba
ps w
ĠV MX
Ġ: "
be fore
Ġev ents
Param eter
Ġmac roblock
Ġbr anch
Ġbet ter
Ġener gy
R W
b mds
re strict
Ġ* ((
or outine
ar ly
Ġm ix
Ġm essage
bu lk
Ġx y
cur l
vm c
var i
mis sing
Input Visitor
> \
A TA
F C
L ET
l ush
q td
Ġa uto
set ting
Ġl uks
ĠP icture
Ġst q
pb dev
Ġbe ing
ĠH T
__ )
To o
Ġmsr s
IZE D
Ġgr anularity
AVFilter Link
THREAD S
sty le
Ġfollow ing
S ENT
de tach
Ġt ick
ar is
Ġh i
as signed
buf len
ĠS UB
ĠB us
Ġex act
REG BP
ĠX C
config uration
sw s
Ġsub frame
ĠIn valid
ĠThe re
iz ing
cre ase
SRSC onf
B S
C ur
P X
l ic
de nom
Ġs g
Ġc rs
Ġa Sig
it o
es cape
bit mask
ĠM emory
IO MMU
read l
FRAME S
ĠEX T
Ġper m
nv ram
Ġprop er
Ġcompat ibility
]" =&
A SS
c f
d ig
h orizontal
w c
Ġ UN
Ġg l
Ġg si
ĠP ut
AL ETTE
sh utdown
Ġse par
Ġas sign
ĠE INTR
ind x
sg list
TCG v
Ġmult i
Ġme an
hist ory
sche dule
Sp ace
9 0
9 70
A GE
Q emuOpts
d xy
g lyph
i ed
| =
Ġ layer
Ġf ooter
ĠAV C
Ġh ist
Ġr ice
low res
chr ToYV
Ġcomp ression
26 5
Ġband no
Chr SrcY
Ġmm co
BACK ING
19 2
Ar g
Ġcalc ulate
ĠsrcSlice Y
Ġhp et
- %
D D
I LL
U sed
W rite
b ut
d cl
f ont
f skip
h c
p an
p fn
w i
re ll
at roska
Ġt v
Ġret ry
un quantize
um ents
sh l
Ġse lector
bo und
ĠL inux
SR R
ENO ENT
br id
cle an
ĠDE CODE
AVFilter Context
Ġcontain s
sist ent
ĠVHD X
META DATA
rell is
9 5
B PS
I A
W MV
[ ],
e ac
f alse
Ġ IT
si v
Ġint errupts
he ep
Ġm ul
Ġm pc
un less
set s
Ġd yn
ul se
LO OP
ol ute
LA BLE
Ġun implemented
Ġal p
ĠO N
fl ate
Ġacc ording
VA TE
Ġextract Float
Ġsu ccess
Ġstuff ing
comple tion
cred s
Ġvert ical
AI LABLE
6 01
S ocket
T MP
V Q
f ul
l anguage
v free
Ġre ject
Ġ" ");
Ġo bt
ĠP M
ĠP REF
ĠS ysBusDevice
sp ice
LA TION
LE G
AD ST
Ġwh ether
pa u
ĠG uest
RO W
opt arg
wait ing
Ġprocess ing
with in
descriptor s
Ġdirect ly
PROTO COL
Res ult
85 44
Vnc State
3 86
A PIC
C heck
M ax
re ordered
in cts
Ġc ss
Ġp rom
Ġm ost
Ġo w
Ġ2 9
ĠP TE
ĠĠĠĠĠĠĠĠĠĠĠĠĠĠĠĠĠĠĠĠĠĠĠĠĠĠĠĠĠĠĠĠ ĠĠĠĠĠĠĠĠĠĠĠĠĠĠĠĠĠĠĠĠĠ
ĠS ECT
log ic
iv i
ID ATE
ĠB O
Ġun pack
Ġex port
sy ntax
po se
Ġpar sing
Ġtim es
xf m
not her
comm ent
FRA G
DS PContext
Ġconfig uration
nv ic
ĠIP MI
inst ance
Comple tion
B e
D emuxContext
M IG
W arning
] ++;
o gg
t as
v buf
Ġ la
Ġ= >
Ġa ction
an y
av codec
ĠN e
block align
ra x
ver y
mode s
DI SK
Ġe st
Ġdo log
sub str
arg er
Ġare a
NA PS
Ġrun ning
group s
clu sive
Ġpas sword
uy v
O pen
P roperty
V oice
i Task
l sock
Ġ @
Ġ LE
it xfm
Ġre main
ff ect
str to
ro blocks
Ġ(! *
sp atial
SE COND
SE EK
layout s
prot ect
N Y
^ ^
b id
n ics
o ose
p fd
s nd
Ġ OR
Ġt ree
Ġf requency
co mb
ut ure
Ġv isitor
Ġd ither
ĠS top
EN SA
ĠD on
sh ared
Ġse em
Ġwe re
CON TEXT
fs r
ĠTCG Reg
pack age
HO T
LU G
corr up
Ġimplement ation
ĠPR INT
F REQ
P MODE
R N
S cal
S ection
S ENSE
T imer
s lave
Ġ2 7
read only
ref resh
Ġth reshold
ĠH V
NO S
Ġsc reen
cs r
exp onent
Ġusb redir
PP Y
Al ign
ĠSO CK
Ġoc cur
HAND LE
Ġee prom
DISPO SITION
L INK
L evel
O S
h ave
l icate
p it
am f
el bg
ar ts
Ġv mx
im ate
ĠS o
Ġcon sole
ov erride
start ed
Ġy ou
000 1
qu ad
ON IT
<< (
Ġvm cb
ĠAVFilter Context
ĠSt art
IAL IZED
Ġsup ports
isk State
FRO NT
ĠPREF ETCH
5 01
S END
h Chr
l m
m er
o gram
p vr
s dev
v td
Ġa nother
Ġt ail
Ġf t
Ġre du
Ġre sidual
Ġl ambda
Ġl arger
ĠP S
Ġst ored
res ses
res ource
src Slice
par sing
AR MV
ĠH ELPER
US R
pre ter
AN CE
MI SS
Ġinter le
RD MA
Ġdsp func
ĠZ PCI
ĠCOM PILE
c as
e lement
q int
r ack
in ject
on d
ctx t
Ġu valpha
Ġr ad
Ġch anges
ĠM IG
ĠF LI
cb pcy
OP S
sy m
ĠU RL
Ġdev fn
PCI Bus
ren try
40 5
Ġchunk s
COM PAT
Ġreal ly
Ġwrit es
SOFT MMU
ĠAU D
ele ms
Ġsmb ios
ĠVMX NET
heep dog
0 16
C LO
D SP
D ITHER
K ERNEL
V PE
Y NOS
d mv
s scanf
Ġ( ++
ck er
ic ient
il er
ata pi
Ġw c
Ġl un
th umb
CO PI
ĠS P
AL SE
que ued
Ġ(( !
add l
Ġnot e
UN I
SC S
Ġpic ref
Ġsub str
Ġdest ination
ĠCP SR
TRA N
punpck hb
Ġes c
partition s
vol ume
Ġsen se
COPI ED
punpckhb w
9 2
S Q
V X
b ind
f init
g or
g olden
Ġ eth
de pendent
Ġs phb
Ġs dram
Ġc ert
si md
Ġd b
tr c
av ing
bit buf
ĠM T
Ġco lo
Ġco dsty
LA MB
AD ER
Ġex pect
mov z
ĠH AS
fe renc
col s
Ġcomp are
Ġcl ut
REA TE
ca ps
tp el
Ġsr r
xFFFF FFFF
ĠvChr FilterSize
atom ic
COE FF
ĠHT TP
LAMB DA
B L
M IC
a head
d quant
d ay
g d
z rle
Ġch apter
igh ts
ust om
ag ement
ĠF OP
Ġ~ ((
Ġbo ok
Ġskip ped
byte u
Con d
ĠSE I
SER V
case s
sys ctl
dist ance
ĠCH UNK
tt mb
ĠMM CO
NAPS HOT
0 11
3 000
D XVA
H ARD
Y Y
h rd
q t
v ms
Ġ et
st orage
on ito
Ġp ush
an ts
Ġd xy
code r
io h
ĠT C
ĠW IN
length s
AN Y
seg v
(% [
Ġchr Src
Ġes cape
ĠVirtIO Device
ĠVC ARD
throt tling
reslevel no
Ġfour xm
VD PAU
ĠSh ould
User Def
vis or
ĠTranslation Block
Byte Context
B LA
M em
d mfc
f pregs
h Lum
p fl
v o
re ater
ct y
Ġr sp
Ġl s
ĠĠĠĠĠĠĠĠĠĠĠĠĠĠĠĠĠĠĠĠĠĠĠĠĠĠĠĠĠĠĠĠ ĠĠĠĠĠĠĠĠĠĠĠĠĠĠĠĠĠĠĠĠĠĠĠ
Ġcon straint
and s
ps raw
ĠC U
Ġex ynos
Ġsw it
bo x
Block Job
Ġem ms
Ar ray
ĠMOV NTQ
139 4
D NOW
L ER
h alfp
n sec
Ġ ser
Ġa ac
Ġp y
Ġu c
ist ics
ĠM peg
sig frame
Ġun aligned
SE ARCH
AV Picture
EX ACT
inter p
YUV J
Stream Context
tp m
are st
dec ref
eg acy
Ġtrans form
prec incts
segment ation
nof id
Ġpack ed
Ġlin ux
Ġdist ance
Ġpas sed
Ġevery thing
' ve
8 3
O ffset
P IN
P PS
T ag
g regs
i rect
j or
t fs
st rerror
Ġc in
ad pcm
pe ek
av x
im ary
Ġ5 0
ĠL PC
Ġpar allel
IC S
Ġle ss
pack ssd
SO CKET
Ġide nt
TP LUG
ĠNV ME
trunc ate
tempor al
ĠCle ar
packssd w
3 7
Q H
l sp
l tp
n pc
v l
ĉ ĠĠ
Ġt ss
Ġre m
id str
Ġ" :
Ġm pic
ic ro
ic ator
ab i
ĉĉ ĉĠĠĠ
ĠB U
CPU ARMState
par allel
Ġex cp
host name
Ġ12 7
PRE SENT
Ġfil tered
rgb a
mo unt
nv enc
cy ls
ĠMP V
virt queue
ĠQIO Channel
Ser ial
ĠOutput Stream
Ġmu ch
C LK
N UT
q a
s of
v io
re open
re verse
al arm
Ġm jpeg
ut f
ut ing
Ġv mdk
ĠA P
00 1
Ġr y
Ġl j
Ġin v
DE PTH
th is
ir k
Ġco mb
ST RI
Ġx attr
OP L
ĠG EM
]= =
Ġread y
li ance
Ġwrit ing
Ġmod ified
Ġorig inal
fra gs
Ġcred p
M is
M JPEG
S PS
W TE
Ġa pp
Ġt ask
Ġf ifo
Ġre ceive
Ġre ferenc
Ġp timer
id le
Ġm dct
Ġv hd
ex c
Ġd t
Ġh ack
lock ed
as y
ac quire
ĠP FX
Ġsrc H
ne ctor
ĠC opy
Ġstr nc
RG BA
Ġbo ard
CA N
Ġcheck s
:% "
READ ER
Ġsub stream
ca y
eg asas
DU MP
ĠHE ADER
Ser ver
PLA NE
Be Used
TRAN SP
WTE LEM
b map
f seek
n apshot
x er
Ġ TAILQ
Ġb w
Ġp ow
Ġp atch
el ist
et urn
Ġg ive
ĠA RG
ĠA ml
Ġo k
RE NT
OR TS
ty le
Ġst arts
FF ABS
os ition
Ġad v
ĠR S
AV AILABLE
OP CODE
fe of
col um
vlc s
Ġpci e
Ġext ended
UR N
ring s
sf b
ĠSC ALE
Ġbad frame
Ġvirt queue
NON BLOCK
PAL ETTE
huff man
Ġnv dimm
Ġpe er
F W
I E
M emory
Z RLE
b x
b et
m ware
m essage
s sion
s oft
Ġp it
al c
Ġ" =
ĠA ddress
set cond
block dev
Ġse nt
Ġse ssion
Ġex c
ver ify
comp r
dc a
fs String
key frames
min or
TI S
dis abled
Ġdis as
Ġhw def
TRA P
ical ly
fat al
interle ave
chron ize
* *)
7 68
D Y
N ode
O V
S OR
V SubSample
o args
q list
r ma
t os
Ġ lace
Ġs oft
Ġs lavio
it u
ur ces
an ule
ĠA L
ig uous
ĠM achine
ĠT S
Ġ8 0
Ġx c
sp lat
sl t
Ġe lement
sn ap
cc fg
li er
part ial
Ġlo ss
break points
ole an
:: "
codebook s
ĠAVFilter BufferRef
plic ation
attrib utes
ĠSA MPLE
anal y
Scal er
ONIT O
Ġswit ched
A A
A REG
O NE
P ORTS
S tyle
i str
s ame
v di
v bv
Ġi mpl
int p
Ġa Exp
Ġt len
an ep
ad apter
Ġav ail
Ġd amaged
Ġr ps
Ġin crement
OR TED
end point
addr len
ĉĉ Ġ
ĠB E
ms av
Ġfa ster
comp liance
SC SID
samples ref
RT P
ON T
Ġblk dev
cap acity
)* (
present ation
Ġround ing
mig rate
Ġattr ib
Ġcorr up
Ġhton l
rax fs
G BR
N e
n op
r p
s low
w ptr
Ġs low
Ġc op
er ator
en eric
le ted
Ġt ags
si red
Ġ& (
Ġm bs
ic p
Ġv op
ot her
Ġh Chr
mm s
mm on
im dct
ĠC D
uint p
be Data
ĠCPU PPCState
fl t
Ġsn ow
Ġpb dev
ĠBLOCK DEV
EC X
Ġexec ute
Ġfin ished
Ġattr s
PROG RESS
78 16
SUPP ORTED
A PP
T CH
U MB
W IND
c msg
c las
f etch
w arning
ĠAV Rational
str ips
MA IN
Ġ4 4
ID LE
cur ity
cr f
Ġpr iority
BIT EXACT
READ Y
Ġformat s
MMX EXT
seek able
Ġconfig ure
GP F
Lo cal
Ġreslevel no
Ġtick s
C RE
C REATE
I B
L Z
T RI
a ux
d a
t cr
re matrix
Ġs qrt
Ġp op
al ternate
Ġm seq
un plug
Ġin clude
Ġch ain
pos it
Ġstart code
EXT RA
Ġcor resp
): "
descr iption
Ġli kely
Ġbound s
HEVC lc
ĠFLA G
WA IT
Per formance
Dec Context
2 0000
8 2
A ME
L egacy
P N
V ENCRYPT
b ap
g ob
l ld
w fourcc
x D
Ġ ent
Ġ service
de cay
er ial
Ġf ramerate
ĠA ioContext
ot rack
)) ));
(& (
Ġh yper
Ġq int
th r
buf size
block ing
ĠC S
ĠC oroutine
FI FO
Ġth rot
Ġtr igger
NO TS
MP U
ĠL D
fs F
tb r
key code
CA TED
dis as
MI X
ĠAVP ixelFormat
cont inue
ĠMP U
NOR MAL
Completion Func
0 9
R M
S napshot
V OF
] *(
b prm
f it
n or
q s
Ġ ed
Ġ loc
de cr
Ġs scanf
Ġc and
Ġa u
Ġf req
Ġf open
Ġp mv
Ġp lay
ad j
ed ded
av er
con nection
ĠM FI
sh ape
Ġ\ \
Ġas pect
Ġnot ifier
ĠH W
Ġtype s
ĠU SE
Ġadd itional
act er
pp nt
Ġdi rectory
Ġfl v
Ġlow er
ific ant
Ġpart ial
ten sa
Char DriverState
Ġima ges
C ache
L DEN
O MAP
h l
Ġc i
Ġc u
Ġf close
Ġp flash
id r
Ġ" {
Ġv id
ĠA S
Ġq virtio
RE SP
ĠS LB
ps d
ĠC alc
to bgr
IT ION
AV S
ĠE D
md ma
In Src
valid ate
inter face
ĠX VID
MM S
ĠQEMU File
ĠRe set
ALL O
FA IL
Dst InSrc
pas sthrough
GO LDEN
watch point
Ġke ys
fsF id
I SE
S PI
U BITS
l z
t ns
Ġ LOCAL
de ad
Ġc ard
or ld
Ġf uture
Ġp addr
Ġn orm
ER IALIZED
Ġw p
if name
Ġch oose
Ġff url
Ġad just
Ġj peg
sign ature
AV GB
DR OM
fl at
Ġpre pare
cond jmp
IC C
ren der
ĠRE X
HO TPLUG
punpck ldq
Ġboot sector
Ġmc f
99 99
Ġfin ish
WIND OW
NOTS ERIALIZED
C ENTER
F lags
P o
T CP
U MA
h call
j ump
s x
v sid
Ġa urb
Ġb prm
Ġb mds
ic y
ĠAV I
il vr
rc e
Ġ! \
im ation
ent ial
ĠB INK
Ġcpu s
Ġad ded
ĠR LE
Ġon ce
band width
Ġfilter s
CR C
fp scr
Ġscale d
INTER NAL
Ġthread s
Ġgo od
Ġinitialize d
VirtIO Device
ĠNE W
ĠvLum FilterSize
FLT P
ĠPowerPC CPU
keys ym
pk g
WEB SOCK
4 7
A ML
F mt
F lag
S PAPR
T x
b print
h dev
n sector
x ch
Ġ CO
de mux
en o
Ġre ached
si der
un register
Ġq uality
Ġl at
Ġl du
RE SSED
DE CODE
line ar
tim ing
ĠD VB
ĠTCG Arg
mc ast
PRI VATE
Par ser
Ġtry ing
Ġmapp ed
Ġnal size
Ġmod ify
Ġcy ls
Ġchrom Stride
Ġ655 36
H z
P REA
P FLASH
V irtio
Z Y
p addr
q id
r A
s bits
t w
y tes
in coming
de comp
Ġi mx
Ġc g
Ġb map
Ġn l
Ġn one
ĠS LICE
ĠT H
us pend
sig segv
Ġk lv
MT RR
Ġsh ared
dis position
ĠIN SN
rb d
ĠDE FAULT
ific ate
can not
qui red
Ġman agement
halt ed
Ġvhd x
! !
A PE
D ir
L NK
P sy
S kip
h id
q ov
se ct
Ġt t
am elen
co pi
Ġp oc
Ġ" [
Ġn uma
dev name
RE C
ĠP NG
init ed
ĠB u
ĠI CH
Ġun link
pl atform
ĠO ther
EX C
pre set
ĠU HCI
Ġdc a
Ġpred ict
char s
cnt l
over flow
SAMPLE S
Ġexp onent
COMP RESSED
MUX DEMUX
packed X
ĠvLum BufSize
Ġoptim ize
C ore
R ING
S Z
S e
T ime
a buf
b b
i der
l ive
m qc
p msav
s mc
u w
st age
de compress
Ġ" ";
Ġd h
ĠS Y
ĠS ENSE
ĠB GR
Ġx fer
sig mask
ĠQ P
ĠF LO
cb f
VI C
cache d
hand shake
(% %"
ĠINT ER
Ġext ernal
Ġ++ ;
ste ps
KEY FRAME
igration State
ĠAD DR
OPTION S
ĠREAD Y
chrDst W
wav es
Ġldu w
8 00000
F Y
L UT
v dsp
Ġ ETH
Ġs dr
Ġs anity
Ġf n
Ġ1 0000
ad just
Ġm ant
tr ue
il ing
is sa
ĠN ET
ir on
addr s
read w
Ġoffset s
ĠF ALSE
cmp str
Re lease
xf c
TO TAL
ĠAVP ALETTE
ĠRe served
HO D
eg ment
Ġnet work
mis s
Ġdim ensions
hyper call
SIMPLE Q
webs ock
MET HOD
1 0000000
6 5
= -
E G
G uest
J UMP
d tb
e qual
h pte
i id
t rellis
z d
re play
Ġs ort
Ġf ir
Ġre ader
Ġre order
un marshal
Ġn fs
ch osen
Ġl ut
is s
ĠP ixelFormat
MA RY
ĠT ry
ol or
ĠE ST
ĠO S
Ġcont ent
Ġpro ble
not ifiers
TH ER
ĠBlock dev
Ġlum Stride
MOV Context
ĠAVFilter Link
calc ulate
asi c
encrypt ed
Ġ': ')
ĠWh en
9 1
F ield
T SS
c sp
f requency
l ane
w ake
re at
re serve
Ġi cp
Ġf i
ut ed
Ġg pr
ata log
IN LINE
nt sty
red Dither
tim es
edge v
IR R
Ġz stream
ansl ated
Ġlo ader
down mix
COM MON
DP B
Ġwant ed
ĠVirt Queue
Ġprovide d
Ġseem s
2 80
6 000
K ey
P age
R ing
V SID
c pe
p ch
y dst
Ġ LAST
in quiry
Ġa i
Ġf cntl
Ġav s
Ġin side
Ġ4 2
ps y
ip d
Ġis s
Ġco st
ĠC LO
Ġstr ucture
AV X
UN IX
mask ing
Ġres olution
cs sid
== ==
event fds
ĠIN PUT
Ġpl anar
ĠAVP icture
ĠK ERNEL
Ġacc es
cor rel
Ġaio cb
global s
SPE ED
REP ORT
Ġexist ing
ĠAVDictionary Entry
Ġcorresp on
) ");
) ==
B IN
F U
H i
H INT
P LAY
S NAPSHOT
a ic
b alloon
f adt
k start
m ore
t el
Ġ location
st ed
Ġi otlb
Ġs cope
Ġf size
et ype
Ġm eta
op d
Ġg d
ĠA MF
la ck
Ġh int
Ġin crease
Ġst d
ĠB ONITO
sp ar
Ġal t
per formance
BU SY
Ġblock size
ms b
Ġsw f
Ġtmp z
LI C
pict q
me g
Ġsign ature
BO ARD
weight ed
SD RAM
Ġquant ize
ĠCon fig
CUR RENT
mis sion
Ġwork s
Ġ655 35
ĠlastIn LumBuf
Ġvmx net
: //
A CPI
A NON
X Y
i B
r regs
z lib
Ġa Sign
Ġb gr
Ġb roken
Ġ2 00
Ġthe ir
ĠS ome
con straint
ĠC ode
cl ients
ĠQ Cow
sub bands
Ġcur frame
ĠW ait
for w
app ed
Con sole
Ġpl anep
PRI MARY
ĠEX YNOS
Ġsd hci
RD ONLY
SIG SEGV
LEN AME
Ġsig set
sm art
Ġinsn s
TB FLAG
second ary
ĠComp ute
ĠPRE FIX
ĠOPEN PIC
B lk
W atch
r al
y c
re name
ff s
Ġu dp
Ġh elp
Ġq list
dev addr
Ġr nd
ĠP r
ream ble
ĠS OF
out picref
ĠT LS
Ġop us
Ġth ose
pl s
ĠQ SIMPLEQ
Ġtr unc
Ġen ccfg
NE G
act iv
Ġfd s
hw addr
VER T
USB Device
Ġfil led
ĠBlock Backend
Ġhost name
work er
Ġquant ization
Ġdef ine
BOO T
buffers ink
rel ative
jo bs
fra ction
Ġuvm y
Len gth
SQ RT
TRANSP ORT
meg asas
% .
& (
8 000000
E ST
P F
P TS
R aw
S BITS
T CE
b mp
d bs
w alk
Ġf loppy
he st
Ġn s
ig hest
RE SH
Ġst buf
Ġch ctx
mb skip
ĠT o
EN TS
RA P
fd set
AD evice
NO RE
bo dy
Ġfail ure
samples A
pci hp
Ch roma
HE IGHT
VE CTOR
Ġ++ )
ĠGet ByteContext
18 1
Ġem ulation
ĠSt ream
Ġcomple ted
pwrite v
scratch pad
Num ber
ĠSe cond
Ġct ts
CONNE CTOR
Ġrep lace
GBR P
ĠADDR X
F IN
L IN
M G
V al
h elp
k a
m k
q max
r andom
x mit
Ġ zeros
int x
Ġp cr
ĠA F
ĠA SF
ex ist
Ġn to
av ccontext
IN PROGRESS
Ġh ad
Ġin correct
rc Params
res olve
pc c
Ġ8 8
Ġco efs
ĠB F
ĠV Q
Ġth ings
SE QU
Ġne on
fil tered
Ġmb n
sn r
Ġcur idx
LI P
nal s
Ġalloc ating
Ġupdate d
ĠSD RAM
child ren
Ġrequi re
vLum BufSize
evt chn
CONNE CT
colo ur
ĠPut BitContext
ĠCalc ulate
5 206
C md
L W
V FIO
a use
s ram
Ġ CONTROL
re get
Ġc tb
Ġc vt
Ġre peat
si oc
Ġp at
ĠA s
tr act
ip ts
ref l
Ġco m
rit ical
ĠC an
Ġj son
par c
MU LT
so ci
SA FE
CLA RE
SER VE
section s
Ġev t
LU KS
ĠMemoryRegion Section
Ġwrit able
program s
Ġprec no
Ġexist s
final ize
the ora
Not ifier
restrict ed
1 00000
G S
I CI
P r
S w
X C
\ "\
] +=
d h
m fx
u valpha
v reg
Ġ YUV
se mi
Ġc uda
Ġre cv
Ġp orts
ad st
Ġ" (
ex clusive
em on
ch ro
Ġh nm
ĠC AND
sig return
ix Fmt
FI LENAME
mv bp
ĠF irst
per ms
pred ict
own er
SY N
Ġpl s
DO NE
Ġexception s
mod ified
Ġcommand s
ĠDI V
Ġcomple tion
-------- --------
PowerPC CPU
disp atch
fsP ath
Arch State
VOF W
ĠCAND IDATE
5 1
H OR
Q LIST
r u
r ule
x save
Ġi ch
Ġc ipher
Ġc irrus
si c
ad if
Ġm alloc
ic it
ĠA t
Ġn ibble
Ġd bs
Ġo ss
ĠS ingle
ĠM ult
ĠT R
EN V
rit h
ĠV LAN
Ġj s
Ġbe h
BU TTO
vm cb
ĠOPC M
sw r
SD L
INIT Y
Ġpixels v
hy brid
Ġbr idge
alle st
Ġnc q
SERV ED
iron ment
SEQU ENCE
A d
D K
O D
Q ERR
[ *
c atalog
g uess
l wd
q min
s qrt
y ield
st l
se e
Ġs il
Ġc are
er sion
Ġre sample
co res
Ġv net
Ġv seq
Ġn ull
dr ives
ext u
Ġr base
data plane
TA B
ĠS ub
ĠS ave
Ġco upling
Ġad dend
SE C
ĠR x
AV IOContext
UN USED
so urces
ĠL EN
inter mediate
ĠW P
Ġload ing
ren gth
color s
Ġinter val
Ġover lap
sa fe
esc ale
ĠME M
ĠSCS ID
chrDst H
ĠvChr BufSize
ĠST REA
Ġdid n
XF ER
cook ie
ĠlastIn ChrBuf
=\" %
CLE AR
bet ls
analy se
RESP ON
E nd
d ac
k ick
l ms
s dr
u ce
Ġg e
Ġd py
Ġu id
RE E
ĠM atroska
ps ub
index es
ĠT est
nt o
ST EP
ĠB AR
ĠV ideo
ĠD BDMA
pl l
SE Q
AV Pro
ci a
sub pel
bo unce
ĠW indow
rd t
MO D
ĠU se
sw f
VM C
MV PC
Ġinter pol
punpck lwd
cy linders
transfer red
ĠME DIA
Ġter min
ĠChar dev
syn chronize
neg ative
rev ents
ĠNE ON
Output Visitor
ĠEA GAIN
Coeff s
pul se
FAIL URE
spar c
AVPro beData
1 10
C RTC
R P
] %
n channels
s ink
v ser
x max
y uy
st and
Ġre x
co upling
Ġp ulse
ĠAV STREAM
Ġh tab
Ġr i
Ġr addr
Ġr level
RE SU
ĠM C
EN CODING
SI VE
ĠB P
ĠB US
red s
nc q
nc Context
Ġas signed
AV MEDIA
Ġex ceed
Ġex plicit
mv type
write fn
time code
comp s
Ġe arly
cr is
pre pare
STA LL
ep ctx
BA NK
und le
cs um
ĠU V
IG NORE
MD K
NA K
Ġlist en
Ġdr ives
Ġkey code
Ġqu ery
Ġcolor s
Ġrgb a
COMP LI
Sub title
branch y
URL Context
-+-+ -+-+
trail er
A t
G I
H P
N ame
b si
r md
s un
z y
st buf
st sc
Ġs sse
Ġint r
Ġv io
ex ynos
ma jor
Ġr ot
if s
ĠP SY
ĠP ART
Ġde pend
mb n
Ġbuf size
name d
red uce
ĠI SO
cur idx
ĠR MD
mv s
Ġsw ap
CON SO
bo se
fs State
ĉĉĉ ĠĠ
ENT RI
Ġio mmu
ĠThe se
Ġph ase
Ġany way
Ġlow res
Ġmat ches
Ġcle an
Ġlum BufIndex
virt fs
Ġfunction s
uyv y
tw op
, %%
1 000000
= ,
D o
F B
G G
L R
O LD
S h
q io
r D
t wo
Ġif name
Ġa ux
Ġf pu
it eration
lo cty
Ġp num
ĠA IO
Ġw v
ĠĠĠĠĠĠĠĠĠĠĠĠĠĠĠĠĠĠĠĠĠĠĠĠĠĠĠĠĠĠĠĠ ĠĠĠĠĠĠĠĠĠĠĠĠĠĠĠĠĠĠĠĠĠĠĠĠĠ
ĠS B
iv gen
ĠM CI
block ed
Ġsrc U
Ġsrc V
sh m
dst H
ĠE nd
di rectory
write w
ĠH e
inter preter
CA TE
Ġpar ity
ĠBDRV V
Con nector
ux Context
Ġqu irk
Ġcomm it
INTER FACE
sys bus
cont ent
ĠdstW idth
graph ic
NS V
Ġgo ing
Ġds putil
vChr BufSize
SHA RED
ĠAU DIO
Ġscr atch
ĠPO LL
Ġneg ate
Ġimmedi ate
Ġcorrespon ding
RESPON SE
' ll
, &
C fg
S urface
W E
d f
d w
f y
n bits
Ġf rac
Ġp k
mp c
pi re
read fn
ĠQ Crypto
ĠF AST
file size
Ġe qual
Ġpr oto
Ġread s
Ġcomp onents
80 80
edge h
CR S
IS O
AB I
ual ly
Ġac count
Ġcor rection
Ġinvalid ate
cpl us
IDE State
[] ){
Ġcorrect ed
Ġcblk no
Ġiter ation
att ached
pret ty
Ġstrnc py
C tx
C DROM
e ch
m ce
q mat
x ED
Ġc d
Ġt addr
Ġm akes
Ġv o
Ġn vram
ER AL
dr q
ĠS PI
ĠS ince
ist ered
sh li
Ġ' .
nc y
di rection
DR Connector
Ġcur bits
ath er
ĠL BR
dir fd
TI FY
page size
ĠAVP ixFmt
mo oth
ĠMA CHINE
Ġ... )
ACT ION
Ġvalid ate
wh ich
Ġra ctx
Ġtimestamp s
lement ary
Ġsi mp
Ġcap ability
ĠVirtIO SCSI
Ġcorrect ly
Ġsch ro
Th is
VirtIO SCSI
hyper tas
ident ify
lastIn ChrBuf
010 10
corrup tions
CONSO LE
twop ass
ĠAVPixFmt Descriptor
8 4
A ES
I ID
M essage
M utex
P lan
R c
b fraction
c ar
c alloc
i sed
p flash
Ġ ERR
Ġ FILTER
re quired
se en
se mb
Ġs ar
Ġs uffix
en et
Ġ{ "
Ġa sc
Ġv bv
Ġreturn ed
Ġr andom
is r
ĠP F
MA N
ĠQ LIT
dst Block
lay ers
Ġe ffect
Ġdo main
CON T
ith m
Ġit self
temp t
ild iv
br k
IC UB
40 96
Ġz Exp
Ġopen ed
cry ption
ĠPC M
Ġem ulate
post copy
ĠRT C
fsP DU
ĠEn able
ĠSECT OR
tel net
BUTTO N
. ",
4 11
B ID
H U
H ELPER
M edia
Y MO
b undle
e asy
f open
j s
k f
n p
o em
w mv
am ma
co d
Ġp dev
Ġp hdr
ic lk
Ġv pic
ĠA ccess
la pp
io eventfd
Ġo dd
ĠS ystem
ĠC A
ĠI gno
ĠQ OBJECT
ĠR V
ĠF ind
bus y
ud o
sub stream
ĠFF M
ant ed
Ġpkt l
has key
mc bsp
Ġdi rection
coding set
ĠPIX EL
tp v
SECTOR S
Ġclose socket
ĠSt atus
lav fi
Ġfour cc
ĠOther wise
HINT S
7 2
P b
P ID
S ING
c chip
f size
m f
s ot
t id
x p
Ġ uri
Ġ( __
er o
Ġre start
Ġn bits
set info
Ġh x
dev ep
es sion
mm c
ter ms
ce al
Ġun der
Ġth p
INT EL
Ġout side
ĠE INVAL
mt p
Ġdo ing
sub auth
bo olean
CA PS
Ġ9 0000
ll x
Ġopen ing
AS L
Ġmpeg ts
token s
Ġdescriptor s
Ġcond itional
Ġelem ents
ĠCH ROMA
Ġov erride
Ġoperation s
ĠFa iled
bid ir
5 11
B o
] -
b roadcast
l pes
n i
st andard
Ġ( ~
se ns
or ientation
Ġa round
it ation
Ġm edi
Ġv reader
Ġav ccontext
ch k
Ġw m
Ġu d
Ġde mux
Ġuint ptr
Ġch ip
ĠS PS
Ġcon version
ce ildiv
(" {
Ġop er
ĠI scsi
ĠR W
MT X
time base
ial s
fs dev
(* (
act ual
fc m
sd l
Ġper form
SW SCALE
Ġseg ments
ĠME MTX
cm os
ĠSTA TE
Ġuvm x
loss less
ĠSTREA M
ENTRI ES
' %
) .\
E SC
P B
c w
d le
i adst
n components
o streams
q q
u hci
y max
y ond
Ġ FIELD
se udo
Ġt e
Ġt w
Ġre size
si fields
co ver
Ġp ot
ur ther
Ġn ic
io bn
IN V
ĠS ee
of day
ĠM em
ĠT CO
Ġx min
mem op
Ġth us
Ġy max
]) >>
inter cept
RI S
MB LE
Ġext ensions
hd a
FUN NY
Ġirq s
vd pau
BACK END
Ġcr is
Ġcap abilities
reco very
ĠEx t
ĠRT MP
nx hd
Ġatt ached
Parser Context
ĠUV UV
E MMS
O THER
f cr
g fx
g reen
i args
s uffix
Ġ FIX
Ġf it
it d
Ġre v
Ġre moved
ut off
Ġv endor
Ġu art
Ġh Lum
Ġq add
DE ST
ĠN OP
ĠP er
ĠP age
TA CH
up per
con cat
ĠB MP
ĠC LIP
par m
Ġtr ansp
di otrack
mov n
ĠF A
Ġof s
OP ER
ĠG Array
fil m
def s
Ġaddr len
pre pend
Ġsc he
bo chs
od ing
Ġadd resses
AC Y
Ġfile size
ang ing
top left
Ġband width
ĠUSB Device
Bit map
Ġide bus
can MMX
COUNT ER
TR UN
Ġem ulated
Ġsa fe
xb zrle
Ġcy linders
38 4
rec ording
ĠTA B
QIO Channel
ĠBus State
LEG ACY
" .
H V
I Q
P G
Q Crypto
U X
U INT
V T
h oriz
m add
n and
n try
q bool
z u
Ġre verse
si b
Ġp t
ĠA PIC
ĠA BS
mp v
ĠP ES
mb ar
Ġ8 000
Ġff mpeg
Ġy min
CODE D
qu it
ind icator
12 0
(( *
PS W
ĠU ser
LI GN
edge cv
cess or
Ġinter lacing
1000 1000
ĠARM CPU
pcm cia
Ġfl at
lum ToYV
03 03
Ġxen fb
padd d
VA tom
SEG MENT
Ġprot ection
Ġcap ture
Ġinstruction s
jo in
On ly
Ġinst ance
= ",
E Y
N Z
N MI
S pec
V SCSI
r no
s mooth
v ma
Ġ lag
st q
Ġ( =
Ġc at
ĠĠĠĠĠĠĠĠĠĠĠĠĠĠĠĠ čĊ
or rect
int c
int o
Ġa way
Ġre d
si m
ar n
ar p
ad ow
Ġv b
ĠA LL
Ġn Pb
Ġd at
dr om
mp a
Ġu Dest
buf ptr
ĠP re
Ġst orage
TA P
amp lerate
unt ime
gb p
Ġget ting
ST CTL
Ġx DstInSrc
ĠC UR
ĠV ID
Ġun ix
PA PRE
UN IT
und ant
CA PA
SU R
her it
Reg Info
LC D
Ġlo aded
ĠPA RAM
mult ip
mit ted
post proc
NON KEY
Ġconnect ed
ĠBdrv Check
Ġatt ack
IMG FMT
lastIn LumBuf
strlcat f
fsFid State
wake up
ĠTR UE
F PE
W O
[ ^
a es
f ctx
h u
r path
r ary
s q
w ctx
Ġs sid
Ġc e
Ġre do
an cy
Ġg reater
pe ak
Ġl anguage
es sence
log ical
(" /
Ġop s
ĠV ER
Ġgen eric
ĠR eturn
Ġal ias
pa use
UN MAP
ĠH OST
ld ub
Ġstart ing
Ġcomp ress
Ġpre cision
86 18
top right
AB ORT
handle d
PRO M
ĠMO VAtom
cap ture
ĠTh read
Ġdir ac
xF C
COMP LET
Ġsecond ary
Ġsignal s
permut ated
Ġsch id
XT ENSA
Ġstrto ull
Ġimmedi ately
ĠRET URN
UMB ER
Ġproble m
4 5
= (
B ICUB
P ack
e a
p buf
q sv
v os
Ġ ){
re init
or i
Ġf ake
Ġm d
ĠA d
Ġd pl
pe q
av frame
pr d
IN ACTIVE
)) >>
Ġq mat
im ent
(" ");
ĠD V
CH R
bus b
NO DE
vm x
ĠL SI
ĠW V
ĠCPU FLAG
ain ed
Ġskip ping
do mid
Ġoutput samples
MI SC
hw frame
ĠINT FLOAT
Info List
Ġmon o
dx va
Ġmis s
movd qa
Ġfb dev
resid ue
Ġlit tle
Ġtt mb
BIN ARY
, -
C OR
F d
G RO
U DP
f op
f ec
g lob
p ng
r fds
t is
u ate
u Dest
v es
Ġ LEVEL
Ġi Task
Ġs lots
Ġf one
Ġp g
Ġp refetch
ad c
Ġm sc
Ġg ives
code blocks
av i
av lc
Ġw ell
Ġh ard
ts s
sc on
ist ream
CP L
Ġ8 280
ĠC RC
ĠV DP
ĠV MDK
fd sp
sh are
Ġ' ?
ĠQ u
CH RO
key board
Ġtim ers
ell aris
ob mc
FE FE
FFFF FFFF
gp timer
Ġph i
USE S
Ġfe w
Fa ctor
wh it
He ight
std io
std out
BYTE S
SF ENCE
adapt ive
Virt Queue
ĠBu ffer
Sw Scaler
BID IR
A c
A MD
B PC
F m
G RA
L FE
P IT
T OR
V LAN
c avs
g pt
n fo
t ely
y v
st ts
Ġc ell
si cp
co s
Ġp wt
Ġv t
Ġv ect
op eration
Ġg row
ĠA PP
)) [
ak en
Ġfor m
is ing
is space
ac es
Ġde sired
MA C
ĠS ASL
res ume
Ġ3 4
Ġk bd
Ġ' =
par ity
ĠE SP
Ġaddr lo
ath row
RO CKER
uv id
Ġbo unce
Ġpro duct
ENO SPC
Ġ[ %
cap ability
Ġmin or
sock opt
ĠJ SON
RC V
ĠSet up
Ġinitial ization
Ġsnapshot s
ĠTr ans
******** ********
OPEN PIC
alp PixBuf
Ġrad os
sicp al
8 9
C CR
D ST
H Y
K ER
M eta
N UMBER
X VMC
b f
m ilkymist
r ray
Ġ* );
Ġt get
Ġb g
Ġp ty
Ġint no
Ġn blocks
io base
il s
Ġin finit
LL Y
stat istics
ĠĠĠĠĠĠĠĠĠĠĠĠĠĠĠĠĠĠĠĠĠĠĠĠĠĠĠĠĠĠĠĠ ĠĠĠĠĠĠĠĠĠĠĠĠĠĠĠĠĠĠĠĠĠĠĠĠĠĠĠ
sig info
ĠV SYNC
mem set
ĠR R
gen er
gen erate
comp ensation
Ġsw r
max val
ĠH igh
US rc
chr V
config ure
Ġpro ces
MM MU
Ġline ar
PT ION
gr id
Ġ"\ \
Ġsd p
ĠK EY
cap ed
PARAM S
Ġregion s
Ġlum Src
partition ing
xd w
Pro xy
Ġhapp ens
Net ClientState
af q
REAL TIME
but ton
Mem Op
D AR
E INPROGRESS
F e
Y LOAD
] &
l uster
n ormal
r sdp
ĉ ĠĠĠĠĠĠĠ
Ġ USER
Ġs amplerate
Ġ{ \
id wt
Ġm isc
un der
un restricted
Ġg u
Ġd m
Ġw on
ts c
ul ly
ĠP SW
Ġde quant
ĠĠĠĠĠĠĠĠĠĠĠĠĠĠĠĠĠĠĠĠĠĠĠĠĠĠĠĠĠĠĠĠ ĠĠĠĠĠĠĠĠĠĠĠĠĠĠĠĠĠĠĠĠĠĠĠĠ
addr info
con di
Ġis o
ref table
Ġx max
CT R
LE ASE
PR IGHT
Ġse p
mv c
ph andle
Ġar ch
cr m
iov a
ld t
BA ND
Ġit em
ĠW T
Format Parameters
TO PRIGHT
Ġblk s
Ġac cept
Bit s
boot info
bl ue
COM PA
Ġmay be
Ġcs sid
Ġcr m
ĠIS ADevice
ĉĉĉĉ ĠĠ
NON REF
gn oring
dstW idth
merge h
resid ues
Ġproper ly
Ġreject ed
movz bl
ĠHTTP STATE
PREA MBLE
ANON YMO
Ġpot ential
GRO UP
ANONYMO US
I d
Q TAILQ
W indow
d ot
d wt
e code
p timer
s vc
t addr
x min
Ġ ].
Ġs in
Ġs asl
on es
ct r
Ġt pm
Ġt tbr
ic ache
Ġv ps
ĠAV INDEX
ĠAV FormatParameters
il t
il in
Ġr atio
Ġr ule
ĠP arse
Ġde al
FF MIN
sig context
ra ctx
Ġcode cs
SC F
chr Mmx
ĠTCG Op
ĠTCG MemOp
dir ac
Ġref table
mc g
Ġmode s
Ġpc net
ĠAR MMMU
dma c
PRE V
Ġtime code
uff icient
Ġper mission
Ġph b
total frames
ĠCHECK ED
Ġdelay ed
ĠNV RAM
ENABLE D
ĠVirtIO Block
reslevel s
HEVC Context
Get BitContext
Ġsup p
Ġsyn th
isk Req
Ġmmx ext
DSI SR
ĠMIG RATION
Mis sing
Ġloader params
FU A
stand by
SUR FACE
A X
C ont
D ONT
H otplug
N DS
Q MP
b ort
g pe
l sps
n reslevels
o x
o int
w ave
y pos
-> _
re mov
st ages
st rength
de s
