{"!":0,"\"":1,"#":2,"$":3,"%":4,"&":5,"'":6,"(":7,")":8,"*":9,"+":10,",":11,"-":12,".":13,"/":14,"0":15,"1":16,"2":17,"3":18,"4":19,"5":20,"6":21,"7":22,"8":23,"9":24,":":25,";":26,"<":27,"=":28,">":29,"?":30,"@":31,"A":32,"B":33,"C":34,"D":35,"E":36,"F":37,"G":38,"H":39,"I":40,"J":41,"K":42,"L":43,"M":44,"N":45,"O":46,"P":47,"Q":48,"R":49,"S":50,"T":51,"U":52,"V":53,"W":54,"X":55,"Y":56,"Z":57,"[":58,"\\":59,"]":60,"^":61,"_":62,"`":63,"a":64,"b":65,"c":66,"d":67,"e":68,"f":69,"g":70,"h":71,"i":72,"j":73,"k":74,"l":75,"m":76,"n":77,"o":78,"p":79,"q":80,"r":81,"s":82,"t":83,"u":84,"v":85,"w":86,"x":87,"y":88,"z":89,"{":90,"|":91,"}":92,"~":93,"¡":94,"¢":95,"£":96,"¤":97,"¥":98,"¦":99,"§":100,"¨":101,"©":102,"ª":103,"«":104,"¬":105,"®":106,"¯":107,"°":108,"±":109,"²":110,"³":111,"´":112,"µ":113,"¶":114,"·":115,"¸":116,"¹":117,"º":118,"»":119,"¼":120,"½":121,"¾":122,"¿":123,"À":124,"Á":125,"Â":126,"Ã":127,"Ä":128,"Å":129,"Æ":130,"Ç":131,"È":132,"É":133,"Ê":134,"Ë":135,"Ì":136,"Í":137,"Î":138,"Ï":139,"Ð":140,"Ñ":141,"Ò":142,"Ó":143,"Ô":144,"Õ":145,"Ö":146,"×":147,"Ø":148,"Ù":149,"Ú":150,"Û":151,"Ü":152,"Ý":153,"Þ":154,"ß":155,"à":156,"á":157,"â":158,"ã":159,"ä":160,"å":161,"æ":162,"ç":163,"è":164,"é":165,"ê":166,"ë":167,"ì":168,"í":169,"î":170,"ï":171,"ð":172,"ñ":173,"ò":174,"ó":175,"ô":176,"õ":177,"ö":178,"÷":179,"ø":180,"ù":181,"ú":182,"û":183,"ü":184,"ý":185,"þ":186,"ÿ":187,"Ā":188,"ā":189,"Ă":190,"ă":191,"Ą":192,"ą":193,"Ć":194,"ć":195,"Ĉ":196,"ĉ":197,"Ċ":198,"ċ":199,"Č":200,"č":201,"Ď":202,"ď":203,"Đ":204,"đ":205,"Ē":206,"ē":207,"Ĕ":208,"ĕ":209,"Ė":210,"ė":211,"Ę":212,"ę":213,"Ě":214,"ě":215,"Ĝ":216,"ĝ":217,"Ğ":218,"ğ":219,"Ġ":220,"ġ":221,"Ģ":222,"ģ":223,"Ĥ":224,"ĥ":225,"Ħ":226,"ħ":227,"Ĩ":228,"ĩ":229,"Ī":230,"ī":231,"Ĭ":232,"ĭ":233,"Į":234,"į":235,"İ":236,"ı":237,"Ĳ":238,"ĳ":239,"Ĵ":240,"ĵ":241,"Ķ":242,"ķ":243,"ĸ":244,"Ĺ":245,"ĺ":246,"Ļ":247,"ļ":248,"Ľ":249,"ľ":250,"Ŀ":251,"ŀ":252,"Ł":253,"ł":254,"Ń":255,"ĠĠ":256,"ĠĠĠĠ":257,"čĊ":258,"ĠĠĠ":259,"ĠĠĠĠĠĠĠĠ":260,"ĠĠĠĠĠĠĠ":261,"->":262,"re":263,"Ġ=":264,"in":265,");":266,"st":267,"ĠĠĠĠĠĠĠĠĠĠĠ":268,"Ġ(":269,"de":270,"Ġi":271,"Ġ*":272,"se":273,"Ġs":274,"at":275,"Ġc":276,"er":277,"en":278,"ĠĠĠĠĠĠĠĠĠĠĠĠĠĠĠĠ":279,"on":280,"or":281,"int":282,"Ġ0":283,"Ġif":284,"Ġ}":285,"Ġ{":286,"Ġa":287,"ct":288,"le":289,"Ġt":290,"am":291,"Ġb":292,"Ġf":293,"it":294,"Ġre":295,"lo":296,"si":297,"ze":298,"co":299,"Ġp":300,"al":301,"Ġ&":302,"ĠĠĠĠĠĠĠĠĠĠĠĠĠĠĠ":303,"el":304,"ar":305,"ur":306,"Ġ/":307,"et":308,"Ġret":309,"Ġ1":310,"an":311,"Ġint":312,"id":313,"ck":314,"ad":315,"Ġ\"":316,"ff":317,"he":318,"Ġ+":319,"Ġm":320,"ic":321,"ut":322,"Ġv":323,"op":324,"size":325,"Ġ*/":326,"un":327,"Ġg":328,"ĠA":329,"ex":330,"ame":331,"Ġ/*":332,"Ġ<":333,"em":334,"Ġav":335,"ase":336,"Ġ-":337,"urn":338,"ate":339,"ctx":340,"00":341,"Ġn":342,"set":343,"Ġreturn":344,"Ġd":345,"ch":346,"la":347,"ot":348,"bu":349,"tr":350,"ĠAV":351,"ER":352,"ed":353,"code":354,"ĠĠĠĠĠĠĠĠĠĠĠĠĠĠĠĠĠĠĠ":355,"ma":356,"io":357,"ion":358,"dr":359,"pe":360,"Ġo":361,"il":362,"err":363,"Ġcase":364,"mp":365,"ue":366,"Ġ%":367,"ata":368,"Ġ==":369,"32":370,"av":371,"pr":372,"str":373,"IN":374,"\",":375,"))":376,"Ġw":377,"Ġu":378,"rame":379,"ext":380,"ing":381,"(&":382,"ab":383,"ig":384,"Ġ>":385,"ak":386,"Ġh":387,"else":388,"Ġfor":389,"Ġq":390,"dev":391,"lock":392,"Ġr":393,"ize":394,"Ġ|":395,"reak":396,"64":397,"Ġl":398,"RE":399,"++":400,"get":401,"Ġbreak":402,"if":403,"um":404,"Ġin":405,"pu":406,"rc":407,"Ġelse":408,"DE":409,"is":410,"Ġ2":411,"es":412,"th":413,"LL":414,"as":415,"stat":416,"gs":417,"];":418,"OR":419,"ĠN":420,"ir":421,"Ġthe":422,"ty":423,"mm":424,"ts":425,"Ġ!":426,"Ġsize":427,"data":428,"bit":429,"ode":430,"ont":431,"env":432,"buf":433,"ul":434,"frame":435,"ac":436,"ULL":437,"ack":438,"Ġ&&":439,"end":440,"pi":441,"ro":442,"able":443,"16":444,"im":445,"ffset":446,"ile":447,"ĠP":448,"Ġst":449,"CO":450,"Ġde":451,"LO":452,"Ġuint":453,"avctx":454,"][":455,"Ġch":456,"ream":457,"MA":458,"type":459,"ĠĠĠĠĠĠĠĠĠĠĠĠĠĠĠĠĠĠĠĠĠĠĠĠĠĠĠĠĠĠĠĠ":460,"],":461,"TA":462,"ĠS":463,"ĠĠĠĠĠĠĠĠĠĠĠĠ":464,"mb":465,"sc":466,"ine":467,"Ġcon":468,"log":469,"ERR":470,"amp":471,"Ġ(!":472,"dex":473,"ist":474,"ĠNULL":475,"of":476,"static":477,"oid":478,"ontext":479,"ter":480,"emu":481,"\");":482,"der":483,"addr":484,"Ġbu":485,"));":486,"iv":487,"up":488,"++)":489,"out":490,"FF":491,"ĠĠĠĠĠĠĠĠĠĠĠĠĠĠĠĠĠĠĠĠĠĠĠ":492,"ge":493,"ERROR":494,"bits":495,"len":496,"and":497,"unt":498,"),":499,"Ġ4":500,"gb":501,"ample":502,"put":503,"con":504,"val":505,"res":506,"ice":507,"Ġ!=":508,"ĠM":509,"ps":510,"codec":511,"ID":512,"loc":513,"ort":514,"PC":515,"art":516,"ser":517,"CP":518,"te":519,"fo":520,"fla":521,"ent":522,"IO":523,"index":524,"Ġto":525,"ce":526,"igh":527,"AL":528,"ĠT":529,"].":530,"St":531,"mat":532,"ET":533,"stream":534,"error":535,"ip":536,"us":537,"Ġ%%":538,"ide":539,"Ġconst":540,"nel":541,"ol":542,"Ġis":543,"cpu":544,"EN":545,"read":546,"Ġ||":547,"ctor":548,"block":549,"oto":550,"Ġ+=":551,"nt":552,"init":553,"ffer":554,"ap":555,"pb":556,"offset":557,"Context":558,"Ġqemu":559,"count":560,"ure":561,"pc":562,"ight":563,"num":564,"ov":565,"reg":566,"LOG":567,"Ġget":568,"Ġ8":569,"ptr":570,"PE":571,"(\"":572,"ME":573,"que":574,"ĉĉ":575,"Ġ>>":576,"Ġ((":577,"ilter":578,"Ġgoto":579,"Ġ//":580,"bs":581,"Ġ3":582,"ref":583,"kt":584,"SI":585,"Ġbuf":586,"Ġco":587,"State":588,"table":589,"Ġ<<":590,"ST":591,"sample":592,"ret":593,"Ġff":594,"ĠB":595,"idth":596,"ree":597,"Ġtc":598,"Ġsrc":599,"ub":600,"rit":601,"os":602,"Ġcpu":603,"Ġval":604,"Ġx":605,"sp":606,"RA":607,"Ġvoid":608,"flags":609,"Ġop":610,"Ġsizeof":611,"name":612,"ne":613,"acket":614,"ĠC":615,"annel":616,"line":617,"ow":618,"ader":619,"Ġad":620,"CT":621,"sig":622,"red":623,"ĠV":624,"ix":625,"nd":626,"add":627,"fd":628,"ult":629,"to":630,"src":631,"LA":632,"tim":633,"Ġstr":634,"ra":635,"0000":636,"ation":637,"Ġmem":638,"cl":639,"rite":640,"Ġchar":641,"IT":642,"cture":643,"intf":644,"Ġavctx":645,"LE":646,"PR":647,"free":648,"Ġtcg":649,"Ġgen":650,"FI":651,"fa":652,"ĠĠĠĠĠĠ":653,"mem":654,"ĠD":655,"buffer":656,"ev":657,"ĠI":658,"Ġj":659,"Ġun":660,"ormat":661,"Ġth":662,"AD":663,"cur":664,"INT":665,"height":666,"pl":667,"Ġk":668,"sh":669,"header":670,"Ġout":671,"ory":672,"Ġ:":673,"Ġ'":674,"Ġse":675,"SE":676,"pix":677,"nc":678,"TY":679,"port":680,"Ġ\\":681,"width":682,"sk":683,"sign":684,"CPU":685,"alloc":686,"]);":687,"start":688,"Ġy":689,"ĠQ":690,"ĠR":691,"Ġenv":692,"Ġlen":693,"ĠĠĠĠĠ":694,"dst":695,"tx":696,"map":697,"info":698,"par":699,"base":700,"Ġtr":701,"Ġerror":702,"AR":703,"Ġby":704,"state":705,"Ġas":706,"tion":707,"AV":708,"TYPE":709,"ci":710,"ost":711,"Ġbe":712,"Ġex":713,"ĠE":714,"Ġ?":715,"Ġal":716,"ust":717,"channel":718,"REG":719,"ĠO":720,"VAL":721,"printf":722,"sl":723,"mv":724,"ver":725,"ph":726,"rent":727,"ys":728,"ale":729,"ĠĠĠĠĠĠĠĠĠĠĠĠĠĠĠĠĠĠĠĠĠĠĠĠ":730,"Ġ16":731,"Ġnot":732,"ZE":733,"uint":734,"ĠĠĠĠĠĠĠĠĠĠĠĠĠĠĠĠĠĠĠĠĠĠĠĠĠĠĠ":735,"di":736,"mode":737,"last":738,"ĠĠĠĠĠĠĠĠĠĠĠĠĠĠ":739,"ag":740,"Ġoffset":741,"write":742,"CE":743,"lay":744,"md":745,"ĠAVERROR":746,"000":747,"Ġframe":748,"by":749,"MT":750,"no":751,"pkt":752,"list":753,"mov":754,"PI":755,"uct":756,"CODE":757,"drv":758,"mt":759,"ĠF":760,"CK":761,"per":762,"Ġwh":763,"();":764,"Ġ>=":765,"Ġof":766,"MAX":767,"picture":768,"Ġen":769,"SIZE":770,"Ġctx":771,"DI":772,"bj":773,"RG":774,"ss":775,"BU":776,"CH":777,"qu":778,"Ġblock":779,"ms":780,"Ġfa":781,"bus":782,"signed":783,"nb":784,"cb":785,"OP":786,"file":787,"void":788,"Ġdst":789,"Ġne":790,"gen":791,"PA":792,"time":793,"arget":794,"emp":795,"packet":796,"fault":797,"ram":798,"ly":799,"ong":800,"FMT":801,"comp":802,"be":803,"itch":804,"Ġe":805,"Ġwe":806,"endif":807,"pa":808,"Ġdo":809,"ĠG":810,"ec":811,"Ġsw":812,"ind":813,"heck":814,"){":815,"sion":816,"lk":817,"lev":818,"UN":819,"max":820,"ename":821,"Ġar":822,"try":823,"sert":824,"rate":825,"py":826,"INVAL":827,"irq":828,"fil":829,"Ġdata":830,"new":831,"level":832,"ud":833,"def":834,"ace":835,"errp":836,"TE":837,"ress":838,"sub":839,"ache":840,"ect":841,"Ġon":842,"12":843,"Ġma":844,"Ġaddr":845,"ĠFF":846,"aque":847,"Ġcode":848,"Ġtmp":849,"Ġbit":850,"linesize":851,"dc":852,"filter":853,"ign":854,"Ġand":855,"Ġavio":856,"idx":857,"gth":858,"++;":859,"MU":860,"ant":861,"CON":862,"cr":863,"uster":864,"CODEC":865,"pic":866,"fmt":867,"CI":868,"Ġmb":869,"tes":870,"pos":871,"ĠH":872,"ey":873,"DA":874,"((":875,"Ġswitch":876,"US":877,"so":878,"status":879,"pixel":880,"sn":881,"DR":882,"__":883,"ment":884,"eld":885,"TARG":886,"TARGET":887,"conf":888,"low":889,"])":890,"Ġ|=":891,"ield":892,"CG":893,"SK":894,"Ġ5":895,"EX":896,"NO":897,"cc":898,"ith":899,"rom":900,"format":901,"irt":902,"FLA":903,"Ġunsigned":904,"load":905,"decode":906,"Ġso":907,"udio":908,"MP":909,"Ġnb":910,"ction":911,"ive":912,"sector":913,"Ġpr":914,"iov":915,"VI":916,"device":917,"filename":918,"Ġsh":919,"10":920,"SS":921,"lc":922,"Ġ*)":923,"pre":924,"Ġsc":925,"SC":926,"ift":927,"ld":928,"In":929,"ister":930,"req":931,"scale":932,"Ġ6":933,"opts":934,"Ġvalue":935,"vm":936,"mask":937,"ft":938,"Ġdefault":939,"FLAG":940,"tmp":941,"priv":942,"bo":943,"next":944,"loat":945,"Ġfail":946,"peg":947,"region":948,"fe":949,"cmp":950,"samples":951,"tl":952,"arg":953,"Ġcur":954,"Ġwhile":955,"ĠĠĠĠĠĠĠĠĠĠ":956,"ĠĠĠĠĠĠĠĠĠĠĠĠĠĠĠĠĠĠ":957,"value":958,"ial":959,"ype":960,"irst":961,"STA":962,"pro":963,"adata":964,"Ġerr":965,"sy":966,"ĠĠĠĠĠĠĠĠĠĠĠĠĠĠĠĠĠĠĠĠĠĠĠĠĠĠĠĠ":967,"channels":968,"DATA":969,"ath":970,"prop":971,"Ġinit":972,"bject":973,"use":974,"ror":975,"xy":976,"Ġpkt":977,"current":978,"malloc":979,"pci":980,"cache":981,"pts":982,"--":983,"ideo":984,"GE":985,"local":986,"ĠĠĠĠĠĠĠĠĠĠĠĠĠĠĠĠĠĠĠĠĠĠĠĠĠĠĠĠĠĠĠ":987,"roma":988,"Ġfla":989,"chr":990,"quest":991,"]=":992,"NE":993,"ep":994,"Filter":995,"MASK":996,"eff":997,"Ġreg":998,"tab":999,"264":1000,"valid":1001,"ink":1002,"ĠL":1003,"opaque":1004,"cmd":1005,"regs":1006,"left":1007,"stride":1008,"24":1009,"fs":1010,"Ġset":1011,"pred":1012,"inter":1013,"ml":1014,"BA":1015,"param":1016,"all":1017,"tb":1018,"Ġbdrv":1019,"BUG":1020,"testream":1021,"Ġit":1022,"ĠW":1023,"temp":1024,"po":1025,"ess":1026,"Ġtarget":1027,"evice":1028,"ector":1029,"memory":1030,"cluster":1031,"ave":1032,"ta":1033,"Ġ<=":1034,"Ġ.":1035,"und":1036,"unk":1037,"date":1038,"rror":1039,"streams":1040,"reate":1041,"key":1042,"ĠX":1043,"rd":1044,"ĠTCG":1045,"Ġnum":1046,"SR":1047,"DEBUG":1048,"Ġsl":1049,"xff":1050,"host":1051,"slice":1052,"ernel":1053,"ange":1054,"Ġstart":1055,"Ġ7":1056,"Ġres":1057,"enc":1058,"RO":1059,"min":1060,"col":1061,"Re":1062,"UT":1063,"Ġend":1064,"Ġread":1065,"flag":1066,"Ġheader":1067,"Ġcomp":1068,"cep":1069,"od":1070,"Ġ~":1071,"context":1072,"Ġnew":1073,"Ġtype":1074,"TS":1075,"ION":1076,"length":1077,"opt":1078,"uv":1079,"has":1080,"Ġstruct":1081,"Format":1082,"ard":1083,"Ġat":1084,"uld":1085,"Ġput":1086,"blk":1087,"Ġbo":1088,"zer":1089,"iver":1090,"ĠCPU":1091,"Ġ32":1092,"ies":1093,"CA":1094,"Ġbs":1095,"vlc":1096,"dict":1097,"cs":1098,"Ġmemory":1099,"dir":1100,"config":1101,"(*":1102,"age":1103,"MO":1104,"fl":1105,"ĠĠĠĠĠĠĠĠĠĠĠĠĠĠĠĠĠĠĠĠĠĠ":1106,"Ġpar":1107,"INVALID":1108,"PS":1109,"ane":1110,"Ġfprintf":1111,"ask":1112,"Ġmax":1113,"qemu":1114,"sectors":1115,"ber":1116,"ĠU":1117,"Ġadd":1118,"Ġpci":1119,"ĠTARGET":1120,"BIT":1121,"Ġ**":1122,"struct":1123,"pixels":1124,"chroma":1125,"rl":1126,"Ġtim":1127,"Ġthis":1128,"Ġcheck":1129,"upport":1130,"rect":1131,"field":1132,"Ġsample":1133,"OW":1134,"SA":1135,"extr":1136,"MEM":1137,"/*":1138,"TI":1139,"mage":1140,"Ġref":1141,"56":1142,"',":1143,"cpy":1144,"otion":1145,"hci":1146,"output":1147,"RT":1148,"Ġ12":1149,"for":1150,"Ġstream":1151,"Ġcont":1152,"Ġpix":1153,"shift":1154,"Ġdecode":1155,"const":1156,"ĠPCI":1157,"SH":1158,"derr":1159,"ain":1160,"dis":1161,"Ġdev":1162,"sb":1163,"Ġnext":1164,"xf":1165,"entry":1166,"hand":1167,"ore":1168,"ient":1169,"ING":1170,"Ġpro":1171,"Code":1172,"Ġor":1173,"ans":1174,"not":1175,"stderr":1176,"insn":1177,"Ġ10":1178,"Ġpre":1179,"20":1180,"Ġflags":1181,"AN":1182,"Ġbytestream":1183,"LOCK":1184,"path":1185,"Ġwith":1186,"SET":1187,"audio":1188,"met":1189,"Ġ__":1190,"ity":1191,"MM":1192,"ENO":1193,"desc":1194,"ok":1195,"Ġ-=":1196,"band":1197,"LI":1198,"=%":1199,"ception":1200,"Bu":1201,"abled":1202,"du":1203,"Ġuse":1204,"mc":1205,"Ġline":1206,"RI":1207,"ib":1208,"86":1209,"tag":1210,"act":1211,"own":1212,"ents":1213,"unc":1214,"zero":1215,":%":1216,"AC":1217,"Ġinfo":1218,"river":1219,"kip":1220,"phys":1221,"input":1222,"intra":1223,"Ġpos":1224,"UE":1225,"ition":1226,"Ġcl":1227,"thread":1228,"args":1229,"bytes":1230,"80":1231,"\";":1232,"Ġassert":1233,"Ġindex":1234,"one":1235,"lass":1236,"back":1237,"tc":1238,"Ġdc":1239,"ĠĠĠĠĠĠĠĠĠĠĠĠĠĠĠĠĠĠĠĠĠĠĠĠĠĠ":1240,"ler":1241,"irtio":1242,"app":1243,"ord":1244,"frames":1245,"est":1246,"INVALIDDATA":1247,"PT":1248,"ĠĠĠĠĠĠĠĠĠĠĠĠĠĠĠĠĠĠĠĠ":1249,"Ġaml":1250,"quant":1251,"Ġid":1252,"lab":1253,"Ġ)":1254,"mple":1255,"11":1256,"skip":1257,"ĠCODEC":1258,"ĠĠĠĠĠĠĠĠĠ":1259,"Ġarg":1260,"open":1261,"ĠOPC":1262,"Ġ\"%":1263,"Codec":1264,"fg":1265,"Ġare":1266,"Ġbuffer":1267,"PIX":1268,"'t":1269,"Ġ(*":1270,"URE":1271,"ill":1272,"errup":1273,"EMU":1274,"Ġlast":1275,"target":1276,"DRV":1277,"Ġmode":1278,"FT":1279,"Ġmemcpy":1280,"ifdef":1281,"tions":1282,"off":1283,"Size":1284,"pict":1285,"Ġthat":1286,"assert":1287,"AT":1288,"uration":1289,"ded":1290,"ild":1291,"Ġskip":1292,"timer":1293,">>":1294,"sizeof":1295,"wa":1296,"sum":1297,"Ġan":1298,"fdt":1299,"byte":1300,"Driver":1301,"Ch":1302,"fin":1303,"LT":1304,"BITS":1305,"scan":1306,"ould":1307,"link":1308,"Ġcodec":1309,"UV":1310,"FIX":1311,"Ġpic":1312,"Ġfile":1313,"sps":1314,"nal":1315,"EL":1316,"Ġtrue":1317,"ĠĠĠĠĠĠĠĠĠĠĠĠĠĠĠĠĠĠĠĠĠĠĠĠĠ":1318,"create":1319,"sw":1320,"READ":1321,"FIG":1322,"CONFIG":1323,"]->":1324,"ug":1325,"video":1326,"Ġfd":1327,"register":1328,"cond":1329,"==":1330,"pth":1331,"do":1332,"NULL":1333,"Ġfloat":1334,"RAM":1335,"event":1336,"coded":1337,"FO":1338,"otal":1339,"ED":1340,"cket":1341,"Ġbits":1342,"ĉĠĠĠ":1343,"Ġmemset":1344,"ding":1345,"Ġwidth":1346,"pha":1347,"Ġfilter":1348,"uest":1349,"IG":1350,"play":1351,"Ġcount":1352,"HE":1353,"Ġpacket":1354,"inue":1355,"queue":1356,"extradata":1357,"qp":1358,"aio":1359,"vc":1360,"gr":1361,"PCI":1362,"Ġ&=":1363,"ell":1364,"comm":1365,"Ġsub":1366,"errupt":1367,"string":1368,"itor":1369,"spr":1370,"ang":1371,"check":1372,"plane":1373,"loop":1374,"upported":1375,"chine":1376,"iled":1377,"coeff":1378,"feat":1379,"lose":1380,"Block":1381,"EINVAL":1382,"Ġcan":1383,"request":1384,"Ġ9":1385,"Ġstride":1386,"pp":1387,"OWER":1388,"setg":1389,"*)":1390,"Ġtable":1391,"vs":1392,"dest":1393,"ĠBDRV":1394,"Ġup":1395,"report":1396,"Ġbytes":1397,"Ġfirst":1398,"ĠPI":1399,"ĠĠĠĠĠĠĠĠĠĠĠĠĠĠĠĠĠĠĠĠĠĠĠĠĠĠĠĠĠĠĠĠĠĠĠ":1400,"rt":1401,"reset":1402,"Str":1403,"alse":1404,"Ġcontinue":1405,"user":1406,"ated":1407,"br":1408,"obj":1409,"MD":1410,"TO":1411,"enabled":1412,"Ġ%%\"":1413,"Ġoutput":1414,"model":1415,"IC":1416,"dsp":1417,"order":1418,"Ġdi":1419,"Ġargs":1420,"ĠError":1421,"..":1422,"Ġno":1423,"ĠĠĠĠĠĠĠĠĠĠĠĠĠ":1424,"del":1425,"om":1426,"VICE":1427,")))":1428,"Ġexit":1429,"Ġfrom":1430,"update":1431,"vp":1432,"Ġptr":1433,"ull":1434,"CodecContext":1435,"Ġqdev":1436,"FRA":1437,"ulong":1438,"PRINT":1439,"RL":1440,"sr":1441,"align":1442,"STER":1443,"ĠĠĠĠĠĠĠĠĠĠĠĠĠĠĠĠĠĠĠĠĠĠĠĠĠĠĠĠĠĠ":1444,"Ġdis":1445,"44":1446,"XX":1447,"DEVICE":1448,"run":1449,"pect":1450,"ifi":1451,"Ġfalse":1452,"blocks":1453,"vector":1454,"Ġpc":1455,"Ġload":1456,"ĠAR":1457,"ON":1458,"fn":1459,"Ġhas":1460,"Ġsn":1461,"page":1462,"IL":1463,"ENOMEM":1464,"fc":1465,"ush":1466,"elper":1467,"Ġ\"\\":1468,"kernel":1469,"ĠIN":1470,"ĠĠĠĠĠĠĠĠĠĠĠĠĠĠĠĠĠ":1471,"seg":1472,"(%":1473,"Ġname":1474,"DriverState":1475,"Frame":1476,"Ġ(%":1477,"trol":1478,"ĉĉĉ":1479,"ĠĠĠĠĠĠĠĠĠĠĠĠĠĠĠĠĠĠĠĠĠĠĠĠĠĠĠĠĠ":1480,"OWERPC":1481,"ers":1482,"Ġpixel":1483,"Ġdest":1484,"long":1485,"Ġsector":1486,"Ġ[":1487,"cal":1488,"Ġrt":1489,"rix":1490,"ary":1491,"dts":1492,"first":1493,"coding":1494,"version":1495,"ĠĠĠĠĠĠĠĠĠĠĠĠĠĠĠĠĠĠĠĠĠ":1496,"atch":1497,"Ġost":1498,"MI":1499,"net":1500,"vdev":1501,"Ġchannel":1502,"<<":1503,"Ġlevel":1504,"ai":1505,".\\":1506,"xx":1507,"hw":1508,"Ġ_":1509,")(":1510,"func":1511,"SP":1512,"sing":1513,"39":1514,"ync":1515,"cp":1516,"top":1517,"ds":1518,"Device":1519,"REA":1520,"Ġtemp":1521,"//":1522,"me":1523,"AU":1524,"ENT":1525,"Ġ64":1526,"hdr":1527,"hot":1528,"WR":1529,"SU":1530,"15":1531,"26":1532,"Ġband":1533,"YUV":1534,"params":1535,"FRAME":1536,"edge":1537,"ob":1538,"uma":1539,"\"))":1540,"exception":1541,"Ġformat":1542,"Ġram":1543,"motion":1544,"imit":1545,"mut":1546,"address":1547,"idct":1548,"find":1549,"opcode":1550,"55":1551,"we":1552,"TH":1553,"FIXME":1554,"(!":1555,"NC":1556,"SY":1557,"ca":1558,"ices":1559,"tries":1560,"dma":1561,"STAT":1562,"Ġhw":1563,"Ġdefin":1564,"Ġab":1565,"02":1566,"Ġpi":1567,"PRINTF":1568,"CR":1569,"Ġdefined":1570,"Ġwrite":1571,"movq":1572,"Ġbool":1573,"ITE":1574,"Ġle":1575,"ios":1576,"Con":1577,"scr":1578,"cess":1579,"her":1580,"ass":1581,"Ġpl":1582,"Stride":1583,"bdrv":1584,"Ġheight":1585,"old":1586,"indow":1587,"Ġpred":1588,"VE":1589,"BASE":1590,"MIN":1591,"Ġvirtio":1592,"Stream":1593,"Ġregister":1594,"Ġcurrent":1595,"IS":1596,"ek":1597,"core":1598,"Ġmv":1599,"Ġhave":1600,"IR":1601,"pack":1602,"ute":1603,"pec":1604,"Ġlength":1605,"lb":1606,"Ġaddress":1607,"PRE":1608,"PEG":1609,"PRI":1610,"Ġsamples":1611,"ns":1612,"ĠPOWERPC":1613,"Ġ(!(":1614,"strcmp":1615,"cfg":1616,"encode":1617,"Ġlong":1618,"()":1619,"ren":1620,"Ġmask":1621,"ound":1622,"ĠY":1623,"Ġhand":1624,"number":1625,"VM":1626,"EXCP":1627,"copy":1628,"layout":1629,"AB":1630,"Ġ#":1631,"node":1632,"ures":1633,"float":1634,"Ġonly":1635,"delay":1636,"color":1637,"PAGE":1638,"Ġstate":1639,"VER":1640,"depth":1641,"Ġblk":1642,"Ġalloc":1643,"Ġhe":1644,"ux":1645,"ĠEX":1646,"parse":1647,"sd":1648,"sync":1649,"Ġdevice":1650,"BLOCK":1651,"mon":1652,"DEX":1653,"MEDI":1654,"Ġ};":1655,"USB":1656,"cow":1657,"ance":1658,"erty":1659,"den":1660,"40":1661,"Ġio":1662,"space":1663,"ĠMAX":1664,"fig":1665,"Ġver":1666,"NA":1667,"Ġrun":1668,"PICT":1669,"Ġback":1670,"Ġsd":1671,"test":1672,"Ġsign":1673,"Ġlist":1674,"BO":1675,"DER":1676,"trans":1677,"Ġneed":1678,"matrix":1679,"uble":1680,"ECT":1681,"ĠčĊ":1682,"rap":1683,"Reg":1684,"prev":1685,"++){":1686,"Ġopaque":1687,"FE":1688,"ga":1689,"Buf":1690,"rag":1691,"vq":1692,"Ġoff":1693,"fp":1694,"client":1695,"Ġfil":1696,"PCM":1697,"chunk":1698,"urce":1699,"Ġkvm":1700,"ĠAVP":1701,"image":1702,"Ġsps":1703,"sent":1704,"ĠPIX":1705,"Ġfield":1706,"aps":1707,"ls":1708,"ĠK":1709,"Ġtime":1710,"scsi":1711,"helper":1712,"MV":1713,"Ġchr":1714,"':":1715,"')":1716,"errno":1717,"ĠINT":1718,"ĠREG":1719,"main":1720,"Ġchunk":1721,"END":1722,"handle":1723,"Ġmov":1724,"nect":1725,"Ġprintf":1726,"track":1727,"AVCodecContext":1728,"rb":1729,"01":1730,"FFFF":1731,"mx":1732,"url":1733,"qscale":1734,"ipt":1735,"FD":1736,"WAR":1737,"serial":1738,"serv":1739,"ĠBlock":1740,"Ġist":1741,"Ġbase":1742,"ffff":1743,"freep":1744,"pt":1745,"row":1746,"options":1747,"ray":1748,"Ġcb":1749,"sed":1750,"Ġobject":1751,"Ġkernel":1752,"Ġlog":1753,"append":1754,"DEO":1755,"bug":1756,"ĠĠĠĠĠĠĠĠĠĠĠĠĠĠĠĠĠĠĠĠĠĠĠĠĠĠĠĠĠĠĠĠĠĠ":1757,"ĠĠĠĠĠĠĠĠĠĠĠĠĠĠĠĠĠĠĠĠĠĠĠĠĠĠĠĠĠĠĠĠĠ":1758,"object":1759,"Ġtrace":1760,"MB":1761,"alet":1762,"PICTURE":1763,"lob":1764,"label":1765,"Ġacc":1766,"mpeg":1767,"Ġcol":1768,"emory":1769,"opy":1770,"raw":1771,"PRO":1772,"xmm":1773,"ake":1774,"MEDIA":1775,"ĠMO":1776,"Ġall":1777,"Ġsys":1778,"char":1779,"Ġaudio":1780,"KE":1781,"got":1782,"ual":1783,")\\":1784,"BE":1785,"ef":1786,"duration":1787,"opc":1788,"point":1789,"ĠRE":1790,"ĠQEMU":1791,"Ġomap":1792,"Ġentry":1793,"08":1794,"cap":1795,"Ġcmd":1796,"Ġextr":1797,"ĠDPRINTF":1798,"128":1799,"face":1800,"Ġ'%":1801,"Ġprev":1802,"BJ":1803,"cor":1804,"Ġ$":1805,"Ġavpkt":1806,"VALUE":1807,"go":1808,"VIDEO":1809,"gpr":1810,"Ġinput":1811,"form":1812,"Ġcluster":1813,"Ġdr":1814,"GA":1815,"edi":1816,"MAP":1817,"ISTER":1818,"DO":1819,"exp":1820,"roup":1821,"Ġold":1822,"Ġreq":1823,"mr":1824,"ADD":1825,"RR":1826,"server":1827,"Ġtag":1828,"hod":1829,"alette":1830,"EXT":1831,"mplement":1832,"Ġac":1833,"delta":1834,"mutex":1835,"CS":1836,"interrupt":1837,"ail":1838,"ops":1839,"ĠPRI":1840,"cle":1841,"stem":1842,"lete":1843,"ĠXXX":1844,"Ġ);":1845,"Ġvec":1846,"Ġrn":1847,"Ġcoeff":1848,"BJECT":1849,"li":1850,"sg":1851,"ctl":1852,"Ġhost":1853,"ifo":1854,"\")":1855,"ĠIn":1856,"vert":1857,"step":1858,"OPT":1859,"Ġvs":1860,"Src":1861,"Ġbut":1862,"Ġkey":1863,"used":1864,"ĠRe":1865,"Ġmin":1866,"LC":1867,"nr":1868,"Ġ15":1869,"tp":1870,"FormatContext":1871,"ĠREGISTER":1872,"ble":1873,"42":1874,"from":1875,"Ġimage":1876,"abort":1877,"ply":1878,"ĠUSB":1879,"diff":1880,"CF":1881,"handler":1882,"ĠThe":1883,"ify":1884,"Ġparam":1885,"Ġlinesize":1886,"entries":1887,"TAG":1888,"Ġ%\"":1889,"Ġinter":1890,"lac":1891,"WRITE":1892,"ALL":1893,"Lum":1894,"Ġrequest":1895,"Ġpage":1896,"Ġshift":1897,"UP":1898,"td":1899,"RGB":1900,"dup":1901,"uff":1902,"Chr":1903,"Ġsp":1904,"gp":1905,"attr":1906,"Ġasf":1907,"ĠAVMEDIA":1908,"PER":1909,"Ġext":1910,"ast":1911,"ĠĠĠĠĠĠĠĠĠĠĠĠĠĠĠĠĠĠĠĠĠĠĠĠĠĠĠĠĠĠĠĠĠĠĠĠĠĠĠ":1912,"MPLE":1913,"hd":1914,"Ġ24":1915,"390":1916,"1000":1917,"yn":1918,"apshot":1919,"property":1920,"BG":1921,"AVE":1922,"MMX":1923,"Info":1924,"close":1925,"nown":1926,"Ġtb":1927,"IFT":1928,"Region":1929,"Ġ,":1930,"Ġz":1931,"unsigned":1932,"Ġfailed":1933,"limit":1934,"Ġrc":1935,"BD":1936,"TCG":1937,"ise":1938,"send":1939,"ĠWe":1940,"ork":1941,"ysi":1942,"Ġone":1943,")));":1944,"ADDR":1945,"Ġsysbus":1946,"MMU":1947,"ĠCONFIG":1948,"prog":1949,"ll":1950,"book":1951,"lot":1952,"OPTS":1953,"are":1954,"INFO":1955,"ĠTh":1956,"Ġ##":1957,"ĠTCGv":1958,"Ġvector":1959,"CESS":1960,"oc":1961,"Ġir":1962,"INE":1963,"rgb":1964,"Ġqu":1965,"ĠINDEX":1966,"card":1967,"range":1968,"Ġ256":1969,"ken":1970,"Ġslice":1971,"OFF":1972,"CTOR":1973,"Ġshould":1974,"Ġcopy":1975,"fifo":1976,"mmu":1977,"LB":1978,"cpus":1979,"weight":1980,"ay":1981,"seek":1982,"Ġopen":1983,"xa":1984,"store":1985,"Ġ*(":1986,"CHE":1987,"NT":1988,"pps":1989,"ict":1990,"NING":1991,"MODE":1992,"features":1993,"Ġtotal":1994,"emoryRegion":1995,"connect":1996,"mmx":1997,"window":1998,"mac":1999,"mallocz":2000,"ve":2001,"DIO":2002,"ĠĠĠĠĠĠĠĠĠĠĠĠĠĠĠĠĠĠĠĠĠĠĠĠĠĠĠĠĠĠĠĠĠĠĠĠ":2003,"STATUS":2004,")[":2005,"head":2006,"Ġmm":2007,"ysical":2008,"luma":2009,"non":2010,"yuv":2011,"Ġbus":2012,"Ġcor":2013,"dct":2014,")*":2015,"ĠARM":2016,"sel":2017,"FUN":2018,"pcm":2019,"ax":2020,"Bit":2021,"Buffer":2022,"NOPTS":2023,"refcount":2024,"clip":2025,"boot":2026,"ark":2027,"04":2028,"263":2029,"Ġover":2030,"Ġnumber":2031,"Ġper":2032,"AS":2033,"Ġwill":2034,"**":2035,"invalid":2036,"poc":2037,"ely":2038,"RTIO":2039,"Ġupdate":2040,"frag":2041,"clock":2042,"ctrl":2043,"RD":2044,"ĠEXCP":2045,"lem":2046,"WARNING":2047,"0000000":2048,"plug":2049,"rence":2050,"Ġph":2051,"ending":2052,"cnt":2053,"dd":2054,"part":2055,"bd":2056,"000000":2057,"iptor":2058,"msg":2059,"','":2060,"ugh":2061,"Ġvideo":2062,"ĠSD":2063,"Ġmotion":2064,"alpha":2065,"CODER":2066,"isc":2067,"NG":2068,"flush":2069,"FA":2070,"ĠDE":2071,"xl":2072,"qiov":2073,"RAY":2074,"CC":2075,"total":2076,"setup":2077,"default":2078,"lomb":2079,"PPC":2080,"Ġts":2081,"Ġfind":2082,"eta":2083,"Ġalign":2084,"mul":2085,"Ġguest":2086,"2000":2087,"define":2088,"dirty":2089,"\"\\":2090,"ĠSE":2091,"qdev":2092,"eded":2093,"LK":2094,"Ġcomm":2095,"COND":2096,"34":2097,"SO":2098,"Un":2099,"ses":2100,"metadata":2101,"exit":2102,"VC":2103,"uid":2104,"ĠSPR":2105,"ĠTO":2106,"Ġrd":2107,"Ġsnprintf":2108,"my":2109,"Ġusb":2110,"Ġfl":2111,"tile":2112,"real":2113,"Ġ++":2114,"AVFormatContext":2115,"Ġide":2116,"Ġtoo":2117,"Ġopt":2118,"Ġirq":2119,"SHIFT":2120,"ĠAVPacket":2121,"led":2122,"avg":2123,"Ġqdict":2124,"PUT":2125,"Ġsupported":2126,"ping":2127,"Ġiov":2128,"Ġuv":2129,"ich":2130,"ower":2131,"50":2132,"ailab":2133,"Ġerrp":2134,"arch":2135,"return":2136,"ĠVI":2137,"Ġidx":2138,"class":2139,"msr":2140,"gain":2141,"Ġtrack":2142,"bl":2143,"lobal":2144,"CLA":2145,"common":2146,"Class":2147,"erate":2148,"HEAD":2149,"pm":2150,"Ġ%[":2151,"ARD":2152,"backing":2153,"golomb":2154,"QEMU":2155,"fer":2156,"LS":2157,"SER":2158,"Ġstatus":2159,"ifier":2160,"GET":2161,"cry":2162,"sid":2163,"ĠIf":2164,"SIG":2165,"FilterSize":2166,"(\"%":2167,"eric":2168,"isitor":2169,"Ġsm":2170,"+=":2171,"PIC":2172,"Ġ^":2173,"AUDIO":2174,"ailable":2175,"Ġport":2176,"ĠĠĠĠĠĠĠĠĠĠĠĠĠĠĠĠĠĠĠĠĠĠĠĠĠĠĠĠĠĠĠĠĠĠĠĠĠĠ":2177,"ictor":2178,"Ġmon":2179,"UM":2180,"ie":2181,"mo":2182,"NONE":2183,"cel":2184,"ry":2185,"Ġinline":2186,"oll":2187,"fr":2188,"ped":2189,"NAME":2190,"Ġ11":2191,"LIST":2192,"Ġnode":2193,"Co":2194,"ension":2195,"ite":2196,"Ġmust":2197,"Ġ!(":2198,"Ġcolor":2199,"OUT":2200,"unit":2201,"BlockDriverState":2202,"Ġpicture":2203,"):":2204,"mplemented":2205,"IRQ":2206,"rx":2207,"Ġleft":2208,"urface":2209,"ĠMB":2210,"SW":2211,"ansl":2212,"iz":2213,"qdict":2214,"msa":2215,"MIPS":2216,"lum":2217,"sock":2218,"pass":2219,"Ġspec":2220,"strdup":2221,"var":2222,"REF":2223,"ĠMA":2224,"dec":2225,"BR":2226,"lease":2227,"ĠPC":2228,"TAIL":2229,"FILE":2230,"ips":2231,"Ġspa":2232,"Ġenc":2233,"HO":2234,"Ġstatic":2235,"Ġtest":2236,"spa":2237,"clusters":2238,"FEAT":2239,"13":2240,"atio":2241,"eters":2242,"active":2243,"Ġpo":2244,"Ġlocal":2245,"Ġlo":2246,"arm":2247,"bitmap":2248,"--;":2249,"Ġany":2250,"ĠThis":2251,"Object":2252,"method":2253,"HCI":2254,"Ġlow":2255,"En":2256,"FFER":2257,"Ġspapr":2258,"ioc":2259,"ĠĠĠĠĠĠĠĠĠĠĠĠĠĠĠĠĠĠĠĠĠĠĠĠĠĠĠĠĠĠĠĠĠĠĠĠĠ":2260,"aw":2261,"PAPR":2262,"Ġinitrd":2263,"List":2264,"section":2265,"present":2266,"Invalid":2267,"itle":2268,"Ġvp":2269,"usb":2270,"ific":2271,"ri":2272,"fds":2273,"mmio":2274,"Ġoffsetof":2275,"Ġfilename":2276,"ĠCP":2277,"IP":2278,"ĠFIXME":2279,"Ġscale":2280,"INTER":2281,"Ġdoes":2282,"EK":2283,"ĠAC":2284,"Ġtop":2285,"outine":2286,"ence":2287,"group":2288,"fore":2289,"gpio":2290,"Ġev":2291,"sec":2292,"debug":2293,"Ġversion":2294,"case":2295,"DS":2296,"ĠJ":2297,"CLASS":2298,"call":2299,"Ġexception":2300,"SPR":2301,"BUFFER":2302,"ning":2303,"physical":2304,"ĠKVM":2305,"guest":2306,"move":2307,"Ġ1024":2308,"OBJECT":2309,"ucture":2310,"ics":2311,"parent":2312,"ĠVIRTIO":2313,"'s":2314,"Data":2315,"Ġ128":2316,"spapr":2317,"Ġseg":2318,"MS":2319,"down":2320,"ORT":2321,"db":2322,"Ġ]":2323,"msi":2324,"Ġrefcount":2325,"coeffs":2326,"Ġ},":2327,"Ġfill":2328,"Ġinvalid":2329,"over":2330,"pck":2331,"can":2332,"atile":2333,"SECTOR":2334,"100":2335,"TRA":2336,"ical":2337,"Ġ512":2338,"display":2339,"UR":2340,"Ġmy":2341,"aspect":2342,"ĠFFMIN":2343,"sys":2344,"48":2345,"Ġcc":2346,"25":2347,"fid":2348,"OF":2349,"Ġacb":2350,"COL":2351,"SAMPLE":2352,"ring":2353,"ialize":2354,"Ġaccess":2355,"CFG":2356,"ELD":2357,"ĠTODO":2358,"Ġscan":2359,"feature":2360,"fi":2361,"Bus":2362,"ias":2363,"lun":2364,"title":2365,"uth":2366,"ixed":2367,"iction":2368,"lect":2369,"Ġstrlen":2370,"Ġparse":2371,"fail":2372,"bar":2373,"mod":2374,"qpel":2375,"TIME":2376,"CMD":2377,"Ġmx":2378,"TION":2379,"freq":2380,"Ġpath":2381,"only":2382,"Ġconfig":2383,"files":2384,"source":2385,"Ġavcodec":2386,"Ġhere":2387,"\"(":2388,"14":2389,"MPEG":2390,"++]":2391,"LEN":2392,"kvm":2393,"nv":2394,"ratio":2395,"control":2396,"ĠMK":2397,"fw":2398,"ling":2399,"BLE":2400,"Error":2401,"Ġfree":2402,"machine":2403,"system":2404,"Ġ'\\":2405,"ither":2406,"Ġhandle":2407,"FIELD":2408,"SUB":2409,"ĠAVFrame":2410,"Ġzero":2411,"unpck":2412,"Enc":2413,"vga":2414,"Ġscsi":2415,"Ġ\",":2416,"Ġused":2417,"ways":2418,"[(":2419,"unref":2420,"*/":2421,"To":2422,"\\\"":2423,"Par":2424,"fprintf":2425,"lx":2426,"punpck":2427,"OFFSET":2428,"ick":2429,"ste":2430,"rosk":2431,"roska":2432,"Ġap":2433,"asm":2434,"known":2435,"DEV":2436,"ĠMSR":2437,"ĠDevice":2438,"PO":2439,"Ġvnc":2440,"Ġrow":2441,"elf":2442,"RB":2443,"\"),":2444,")){":2445,"xFF":2446,"cmdline":2447,"ĠGet":2448,"00000":2449,"Ġpts":2450,"lp":2451,"Ġot":2452,"LY":2453,"IDevice":2454,"Ġdiff":2455,"ious":2456,"Ġ...":2457,"Ġdir":2458,"VLC":2459,"coun":2460,"ready":2461,"sf":2462,"Ġsum":2463,"Ġaio":2464,"served":2465,"Ġvc":2466,"Ġthere":2467,"rs":2468,"Ġbios":2469,"olatile":2470,"----":2471,"Ġresult":2472,"KEY":2473,"Ġrange":2474,"Ġdouble":2475,"array":2476,"Ġwhich":2477,"bytestream":2478,"cell":2479,"Ġsupport":2480,"resh":2481,"por":2482,"lace":2483,"igr":2484,"Ġhwaddr":2485,"job":2486,"ĠĠĠĠčĊ":2487,"ĠAVStream":2488,"Ġfound":2489,"Ġbyte":2490,"sse":2491,"less":2492,"BUS":2493,"Ġdsp":2494,"Ġmachine":2495,"wb":2496,"ueue":2497,"Ġqcow":2498,"pen":2499,"vec":2500,"Ġclose":2501,"Ġwhen":2502,"qui":2503,"START":2504,"TAILQ":2505,"Ġplane":2506,"ĠĠĠĠĠĠĠĠĠĠĠĠĠĠĠĠĠĠĠĠĠĠĠĠĠĠĠĠĠĠĠĠĠĠĠĠĠĠĠĠ":2507,"bool":2508,"03":2509,"Dis":2510,"256":2511,"Ġxen":2512,"ĠIO":2513,"Ġpps":2514,"Ġdesc":2515,"ove":2516,"socket":2517,"COM":2518,"sa":2519,"structure":2520,"Ġmat":2521,"internal":2522,"DECODER":2523,"rot":2524,"USER":2525,"ĠSEEK":2526,"igration":2527,"PP":2528,"ump":2529,"ĠMKTAG":2530,"CAP":2531,"Ġnow":2532,"clk":2533,"tcg":2534,"leg":2535,"Ġshort":2536,"Ġqp":2537,"COUN":2538,"SD":2539,"eg":2540,"VP":2541,"palette":2542,"LOAD":2543,"word":2544,"Ġcreate":2545,"lice":2546,"ALIG":2547,"FEATURE":2548,"xF":2549,"isa":2550,"('":2551,"Ġstore":2552,"MC":2553,"irtIO":2554,"FDT":2555,"kely":2556,"acb":2557,"global":2558,"ach":2559,"tlb":2560,"jpeg":2561,"SCSI":2562,"Ġact":2563,"quence":2564,"MER":2565,"IF":2566,"Ġsig":2567,"Ġdone":2568,"De":2569,"DMA":2570,"xen":2571,"Ġframes":2572,"generic":2573,"PARAM":2574,"Ġregion":2575,"%%":2576,"img":2577,"initrd":2578,"CHAN":2579,"ified":2580,"USE":2581,"cre":2582,"cpl":2583,"Ġ20":2584,"Inc":2585,"right":2586,"Ġpart":2587,"Ġblocks":2588,"cont":2589,"Ġvdev":2590,"Ġ==,":2591,"Ġchannels":2592,"Ġdon":2593,"child":2594,"++,":2595,"())":2596,"Ġmay":2597,"Ġsy":2598,"ĠMV":2599,"tom":2600,"lan":2601,"command":2602,"EncContext":2603,"complete":2604,"HEADER":2605,"RESS":2606,"alt":2607,"avpkt":2608,"18":2609,"save":2610,"TRO":2611,"work":2612,"bc":2613,"jmp":2614,"abac":2615,"asf":2616,"pte":2617,"INTRA":2618,"Ġtimer":2619,"virtio":2620,"Ġthan":2621,"descr":2622,"*(":2623,"simple":2624,"pdu":2625,"abs":2626,"COW":2627,"STATE":2628,"seq":2629,"codecpar":2630,"insns":2631,"idc":2632,"IOContext":2633,"BitContext":2634,"Ġmap":2635,"Ġ31":2636,"short":2637,"FP":2638,"ĠVNC":2639,"fio":2640,"ments":2641,"onent":2642,"COUNT":2643,"MX":2644,"pending":2645,"cbp":2646,"done":2647,"Ġurl":2648,"Ġvm":2649,"ĠĠĠĠĠĠĠĠĠĠĠĠĠĠĠĠĠĠĠĠĠĠĠĠĠĠĠĠĠĠĠĠĠĠĠĠĠĠĠĠĠ":2650,"bands":2651,"Ġppc":2652,"Ġcle":2653,"ages":2654,"PH":2655,"lin":2656,"Ġtrans":2657,"snapshot":2658,"Ġmonitor":2659,"Ex":2660,"EIO":2661,"ĠDEBUG":2662,"dx":2663,"ĠTI":2664,"%\"":2665,"ose":2666,"Ġreal":2667,"Ġpa":2668,"ĠPA":2669,"Ġdel":2670,"LAY":2671,"side":2672,"YV":2673,"ator":2674,"DEC":2675,"ĠPPC":2676,"mult":2677,"LU":2678,"refix":2679,"Ġquant":2680,"Ġreset":2681,"fter":2682,"uc":2683,"Slice":2684,"Ġvar":2685,"Ġpb":2686,"Ġ14":2687,"ative":2688,"Ġbest":2689,"tsp":2690,"OC":2691,"unction":2692,"ime":2693,"ĠMemoryRegion":2694,"reo":2695,"Ġjust":2696,"BGR":2697,"FX":2698,"FILT":2699,"Ġes":2700,"420":2701,"supported":2702,"--)":2703,"tern":2704,"vectors":2705,"ENC":2706,"dt":2707,"ke":2708,"ĠĠĠĠĠĠĠĠĠĠĠĠĠĠĠĠĠĠĠĠĠĠĠĠĠĠĠĠĠĠĠĠĠĠĠĠĠĠĠĠĠĠĠ":2709,"prof":2710,"subregion":2711,"Ġdepth":2712,"xffff":2713,"Ġcommand":2714,"vd":2715,"wait":2716,"padd":2717,"ster":2718,"orm":2719,"NR":2720,"Ġfe":2721,"IDE":2722,"]]":2723,"ALE":2724,"pad":2725,"Ġoption":2726,"30":2727,"tell":2728,"ĠbS":2729,"Ġdescr":2730,"VA":2731,"WOR":2732,"bpp":2733,"Ġmpeg":2734,"Ġgb":2735,"coord":2736,"Ġdct":2737,"pegEncContext":2738,"';":2739,"realize":2740,"Ġfw":2741,"ĠBLOCK":2742,"uvlinesize":2743,"cabac":2744,"Ġlum":2745,"factor":2746,"Ġalpha":2747,"slices":2748,"direct":2749,"31":2750,"ML":2751,"Ġmet":2752,"Ġchroma":2753,"Ġbuild":2754,"gin":2755,"Ġoptions":2756,"FOR":2757,"CKET":2758,"listen":2759,"ACCESS":2760,"break":2761,"profile":2762,"Ġprint":2763,"Ġsend":2764,"FILTER":2765,"Ġpte":2766,"sm":2767,"Ġip":2768,"Ġmult":2769,"resp":2770,"Ġsock":2771,"dlog":2772,"Ġcs":2773,"Ġtci":2774,"bh":2775,"bios":2776,"ĠFFMAX":2777,"INPUT":2778,"ery":2779,"agate":2780,"CACHE":2781,"Pos":2782,"CB":2783,"che":2784,"TP":2785,"00000000":2786,"ACT":2787,"hash":2788,"ĠHAVE":2789,"xc":2790,"irp":2791,")>>":2792,"ulate":2793,"partition":2794,"ian":2795,"AULT":2796,"Ġencode":2797,"exec":2798,"fb":2799,"ĠID":2800,"ert":2801,"oth":2802,"print":2803,"abil":2804,"Ġinsn":2805,"Ġsome":2806,"REQ":2807,"Ġ(((":2808,"cv":2809,"async":2810,"likely":2811,"[]":2812,"MOV":2813,"Ġevent":2814,"prot":2815,"predictor":2816,"OK":2817,"rac":2818,")->":2819,"NEL":2820,"FAULT":2821,"Ġ13":2822,"cy":2823,"coef":2824,"INIT":2825,"otocol":2826,"gram":2827,"pid":2828,"STREA":2829,"Ġerrno":2830,"NAL":2831,"iscsi":2832,"Ġavpriv":2833,"stats":2834,"ressed":2835,"Fa":2836,"irqs":2837,"422":2838,"ĠdstW":2839,"Ġ~(":2840,"Ġuser":2841,"DIR":2842,"TX":2843,"ocket":2844,"double":2845,"Could":2846,"Ġallocate":2847,"eb":2848,"gic":2849,"Ġcall":2850,"Ġexp":2851,"TB":2852,"div":2853,"dump":2854,"ABLE":2855,"Param":2856,"Ġhigh":2857,"token":2858,"]));":2859,"ting":2860,"sizes":2861,"anslation":2862,"ART":2863,"laced":2864,"Op":2865,"rdma":2866,"Ġpxa":2867,"anch":2868,"Ġnbd":2869,"edia":2870,"Ġrgb":2871,"propagate":2872,"full":2873,"stamp":2874,"ottom":2875,"Ġwrit":2876,"timestamp":2877,"Ġdec":2878,"ĠOP":2879,"BACK":2880,"Ġboot":2881,"HT":2882,"ND":2883,"Ġrs":2884,"Ġcontrol":2885,"cause":2886,"Dst":2887,"};":2888,"Ġduration":2889,"signal":2890,"maining":2891,"Ġnon":2892,"enable":2893,"19":2894,"ĠCC":2895,"TR":2896,"Ġtlb":2897,"Ġunit":2898,"qual":2899,"Ġiscsi":2900,"Ġcr":2901,"Ġcontext":2902,"IOS":2903,"ainer":2904,"Ġinterrupt":2905,"resample":2906,"Ġdelta":2907,"SYS":2908,"sch":2909,"Ġnet":2910,"bitstream":2911,"movi":2912,"ĠMI":2913,"poll":2914,"fff":2915,"erence":2916,"Ġsame":2917,"Ġvolatile":2918,"Ġwas":2919,"Ġalready":2920,"Ġstep":2921,"ĠCHE":2922,"Ġprop":2923,"ĠCHECK":2924,"ended":2925,"notifier":2926,").":2927,"nz":2928,"ted":2929,"round":2930,"Ġalways":2931,"ĠMP":2932,"Ġserial":2933,"Ġother":2934,"slot":2935,"xB":2936,"Ġdef":2937,"ddress":2938,"ank":2939,"Ġld":2940,"Ġ!!":2941,"ĠSC":2942,"ĠBLK":2943,"EV":2944,"onents":2945,"Ġtile":2946,"ote":2947,"Ġbefore":2948,"Entry":2949,"Ġme":2950,"SAS":2951,"REACH":2952,"Ġ*=":2953,"asContext":2954,"ĠNBD":2955,"rough":2956,"AND":2957,"ASE":2958,"now":2959,"68":2960,"ĠIS":2961,"NET":2962,"xor":2963,"org":2964,"Ġmsr":2965,"ĠĠĠĠĠĠĠĠĠĠĠĠĠĠĠĠĠĠĠĠĠĠĠĠĠĠĠĠĠĠĠĠĠĠĠĠĠĠĠĠĠĠ":2966,"ĠQTAILQ":2967,"ware":2968,"ONLY":2969,"oy":2970,"Ġneeded":2971,"tables":2972,"prob":2973,"]))":2974,"UND":2975,"Ġcould":2976,"extra":2977,"UL":2978,"result":2979,"Ġpixels":2980,"elem":2981,"ĉĉĉĉ":2982,"Ġ->":2983,"Ġmc":2984,"release":2985,"sprite":2986,"UPT":2987,"dinfo":2988,"task":2989,"values":2990,"ĠRENAME":2991,"]];":2992,"win":2993,"NOACCESS":2994,"ĠBlockDriverState":2995,"crypt":2996,"FOREACH":2997,"File":2998,"onse":2999,"iovec":3000,"Al":3001,"wo":3002,"orb":3003,"drm":3004,"Ġ>>=":3005,"pto":3006,"tem":3007,"Ġvalid":3008,"dp":3009,"Ġspe":3010,"apter":3011,"ĠVP":3012,"BOO":3013,"anes":3014,"build":3015,"Ġflag":3016,")];":3017,"HD":3018,"Ġtry":3019,"ole":3020,"flow":3021,"Ġrm":3022,"ĠDI":3023,"Ġmore":3024,"ached":3025,"unlock":3026,"ĠAD":3027,"RC":3028,"Ġ255":3029,"ĠMIN":3030,"allocated":3031,"ARM":3032,"Ġmis":3033,"aph":3034,"ĠGET":3035,"anged":3036,"gy":3037,"wh":3038,"rerror":3039,"SCALE":3040,"8000":3041,"SSE":3042,"rw":3043,"eration":3044,"movd":3045,"prec":3046,"segment":3047,"HW":3048,"Ġimplemented":3049,"Ġhdr":3050,"acy":3051,"anup":3052,"Ġbacking":3053,"reference":3054,"fields":3055,"graph":3056,"22":3057,"QU":3058,"writ":3059,"eter":3060,"ERO":3061,"Ġopcode":3062,"sole":3063,"BP":3064,"gno":3065,"[-":3066,"lpc":3067,"Ġspr":3068,"mapping":3069,"aved":3070,"rnd":3071,"STREAM":3072,"sor":3073,"Ġenum":3074,"UNK":3075,"444":3076,"SYNC":3077,"Config":3078,"Ġra":3079,"CTL":3080,")&":3081,"/%":3082,"SION":3083,"Type":3084,"ĠĠĠĠĠĠĠĠĠĠĠĠĠĠĠĠĠĠĠĠĠĠĠĠĠĠĠĠĠĠĠĠĠĠĠĠĠĠĠĠĠĠĠĠ":3085,"ELE":3086,"surface":3087,"vid":3088,"wap":3089,"match":3090,"transfer":3091,"FUNC":3092,"auth":3093,"offs":3094,"Ġlink":3095,"ERRUPT":3096,"99":3097,"Out":3098,"stop":3099,"ABS":3100,"RQ":3101,"Ġextract":3102,"clear":3103,"Ġinto":3104,"stroy":3105,"buffers":3106,"ĠGT":3107,"Ġclient":3108,"Ġrtas":3109,"AUT":3110,"EC":3111,"YPE":3112,"Ġman":3113,"decoded":3114,"ĠGetBitContext":3115,"ZERO":3116,"loor":3117,"Ġmxf":3118,"CPUState":3119,"1024":3120,"arker":3121,"Ġflush":3122,"tach":3123,"Ġprocess":3124,"ĠMIPS":3125,"change":3126,"Ġeach":3127,"Ġsocket":3128,"Ptr":3129,"drive":3130,"__,":3131,"Ġ(;":3132,"LONG":3133,"ĠSet":3134,"angle":3135,"pal":3136,"pand":3137,"INTERRUPT":3138,"ait":3139,"Ġem":3140,"cold":3141,"chan":3142,"ĠFW":3143,"FS":3144,"Ġphys":3145,"Ġmapp":3146,"ĠPRIx":3147,"tm":3148,"accel":3149,"icture":3150,"Ġfmt":3151,"CTION":3152,"ĠDESC":3153,"ĠLOG":3154,"ceive":3155,"estamp":3156,"okup":3157,"ADDRESS":3158,"::":3159,"MSI":3160,"Ġbecause":3161,"xffffff":3162,"vt":3163,"sible":3164,"setprop":3165,"api":3166,"tree":3167,"ating":3168,"ws":3169,"Ġ*)&":3170,"ansp":3171,"Ġthen":3172,"Ġthread":3173,"ADPCM":3174,"He":3175,"pas":3176,"spec":3177,"fill":3178,"ĠCh":3179,"'\\":3180,"ten":3181,"xfer":3182,"transform":3183,"esc":3184,"CPUX":3185,"Ġqmp":3186,"ALIGN":3187,"ĠTIFF":3188,"Ġafter":3189,"uper":3190,"Ġdescriptor":3191,"available":3192,"!\\":3193,"lit":3194,"NUM":3195,"Ġpalette":3196,"Ġcond":3197,"Ġopts":3198,"Ġtimestamp":3199,"program":3200,")\",":3201,"CTRL":3202,"ĠRO":3203,"compress":3204,"TIMER":3205,"ALLOC":3206,"high":3207,"Ġqxl":3208,"70":3209,"DC":3210,"efs":3211,"Ġsce":3212,"COMP":3213,"owerPC":3214,"Ar":3215,"ES":3216,"mit":3217,"Ġbad":3218,"Ġpass":3219,"ĠQLIST":3220,"pay":3221,"Dict":3222,"GO":3223,"ui":3224,"drc":3225,"Ġos":3226,"Ġusing":3227,"access":3228,"fragment":3229,"legal":3230,"wrap":3231,"ĠAVCodecContext":3232,"gg":3233,"Ġatom":3234,"discard":3235,"]*":3236,"Ġimm":3237,"option":3238,"ĠPRO":3239,"flash":3240,"VGA":3241,"post":3242,"vram":3243,"HOST":3244,"Ġmake":3245,"ĠSW":3246,"vi":3247,"ĠZ":3248,"Ġcache":3249,"chip":3250,"IND":3251,"ression":3252,"fast":3253,"rescale":3254,"gbc":3255,"ĠQCOW":3256,"mtc":3257,"compat":3258,"va":3259,"wr":3260,"Ġ18":3261,"ĠĠĠĠĠĠĠĠĠĠĠĠĠĠĠĠĠĠĠĠĠĠĠĠĠĠĠĠĠĠĠĠĠĠĠĠĠĠĠĠĠĠĠĠĠ":3262,"Ġprevious":3263,"Ġvirt":3264,"sequence":3265,"PEL":3266,"Failed":3267,"payload":3268,"EA":3269,"]),":3270,"avail":3271,"Ġrate":3272,"offsets":3273,"cept":3274,"corr":3275,"kv":3276,"Ġast":3277,"struction":3278,"vr":3279,"CPI":3280,"ĠISA":3281,"reply":3282,"Ġcal":3283,"Ġdelay":3284,"scal":3285,"rus":3286,"Ġabort":3287,";)":3288,"hp":3289,"Ġva":3290,"ĠNV":3291,"mux":3292,"Ġvga":3293,"GB":3294,"ference":3295,"IZE":3296,"irror":3297,"anges":3298,"Ġslot":3299,"Ġnr":3300,"UEST":3301,"achine":3302,"our":3303,"pdev":3304,"Ġpfl":3305,"Ġqobject":3306,"PRId":3307,"ĠRAM":3308,"cope":3309,"Ġep":3310,"prefix":3311,"ĠSO":3312,"SEG":3313,"FLAGS":3314,"bp":3315,"fixed":3316,"ĠAl":3317,"Ġvalues":3318,"cmpint":3319,"NS":3320,"sen":3321,"sumed":3322,"28":3323,"]+":3324,"hi":3325,"erge":3326,"Ġvhost":3327,"MAT":3328,"DISC":3329,"Ġuvlinesize":3330,"ĠSH":3331,"inputs":3332,"idge":3333,"TD":3334,"mix":3335,"COP":3336,"coroutine":3337,"fx":3338,"Ġnal":3339,"pected":3340,"KT":3341,"ined":3342,"lement":3343,"bi":3344,"ĠTYPE":3345,"MUX":3346,"Sub":3347,"Ġoc":3348,"empty":3349,"codes":3350,"codebook":3351,"dstFormat":3352,"hotplug":3353,"reen":3354,"ĠPG":3355,"Ġdisplay":3356,"GIC":3357,"eax":3358,"ĠAVFilter":3359,"Ġsa":3360,"Ġfull":3361,"Ġprot":3362,"\"));":3363,"Ġrequi":3364,"Ġgot":3365,"Ġavailable":3366,"DP":3367,"ĠFUN":3368,"AST":3369,"qxl":3370,"EXP":3371,"SPE":3372,"Ġsi":3373,"rtp":3374,"Ġallow":3375,"attern":3376,"ĠĠĠĠĠĠĠĠĠĠĠĠĠĠĠĠĠĠĠĠĠĠĠĠĠĠĠĠĠĠĠĠĠĠĠĠĠĠĠĠĠĠĠĠĠĠĠ":3377,"Ġsecond":3378,"Ġcbp":3379,"rcon":3380,"NOT":3381,"sive":3382,"ĠCon":3383,"CRY":3384,"realloc":3385,"PAT":3386,"oot":3387,"pitch":3388,"names":3389,"NON":3390,"Ġps":3391,"unlikely":3392,"Ġelem":3393,"Ġopc":3394,"ĠQDict":3395,"Ġacpi":3396,"ba":3397,"tls":3398,"single":3399,"CHECK":3400,"LINE":3401,"ĠDEVICE":3402,"ipher":3403,"ĠCo":3404,"BUF":3405,"Ġtables":3406,"DISCARD":3407,"RX":3408,"guid":3409,"ppc":3410,"atus":3411,"excp":3412,"neon":3413,"Decode":3414,"FLO":3415,"Ġigno":3416,"Ġfs":3417,"Ġorder":3418,"notify":3419,"(;":3420,"21":3421,"Ġadpcm":3422,"Ġexec":3423,"begin":3424,"raph":3425,"LD":3426,"gn":3427,"nic":3428,"score":3429,"wd":3430,"srcFormat":3431,"with":3432,"ĠNAL":3433,"psrl":3434,"STR":3435,"ingle":3436,"ORY":3437,"Ġyuv":3438,"swap":3439,"ensions":3440,"AP":3441,"action":3442,"Ġround":3443,"Ġpoint":3444,"Address":3445,"](":3446,"ĠCheck":3447,"CORE":3448,"ITH":3449,"fidp":3450,"Ġli":3451,"text":3452,"Ġ1000":3453,"GRAY":3454,"fac":3455,"33":3456,"GP":3457,"ject":3458,"CUR":3459,"Ġsu":3460,"Ġgo":3461,"irrus":3462,"mis":3463,"virt":3464,"Ġ40":3465,"MemoryRegion":3466,"branch":3467,"Ġsegment":3468,"Ġmod":3469,"ENABLE":3470,"****":3471,"FL":3472,"brcon":3473,"sz":3474,"ĠME":3475,"Ġgenerate":3476,"imm":3477,"Ġcap":3478,"Ġavfilter":3479,"Ġqueue":3480,"ular":3481,"Ġ30":3482,"nof":3483,"oport":3484,"threads":3485,"ĠMOV":3486,"CRYPT":3487,"DisasContext":3488,"FIO":3489,"best":3490,"rectangle":3491,"(),":3492,"xe":3493,"Ġsbr":3494,"ough":3495,"RY":3496,"XL":3497,"Ġsr":3498,"Ġextradata":3499,"ĠVirtIO":3500,"Ġcorrect":3501,"Ġ;":3502,"Ġavoid":3503,"thresh":3504,"Ġoutbuf":3505,"Ġmp":3506,"\",\"":3507,"Ġisa":3508,"Ġsmall":3509,"ETCH":3510,"Ġ\"%\"":3511,"ng":3512,"destroy":3513,"Ġmac":3514,"Ġmsg":3515,"dist":3516,"prim":3517,"isit":3518,"COPY":3519,"Ġpthread":3520,"needed":3521,"Ġscal":3522,"Ġinitial":3523,"counts":3524,"su":3525,"Ġsave":3526,"ĠSt":3527,"cpuid":3528,"ibble":3529,"EVENT":3530,"ature":3531,"Ġlimit":3532,"ĠGEN":3533,"bps":3534,"ĠDis":3535,"pool":3536,"ĠCPUState":3537,"ports":3538,"vBuffer":3539,"ĠAVIOContext":3540,"IDX":3541,"ĠIP":3542,"hy":3543,"Ġwork":3544,"Ġdrive":3545,"Mode":3546,"transp":3547,"ĠPAGE":3548,"xFFFF":3549,"Ġwrap":3550,"Ġentries":3551,"rects":3552,"Ġpack":3553,"PCIDevice":3554,"Ġorig":3555,"ks":3556,"ĠPICT":3557,"ĠDeviceState":3558,"ior":3559,"rle":3560,"tv":3561,"stack":3562,"etch":3563,"NED":3564,"Channel":3565,"Ġmapping":3566,"ee":3567,"oriz":3568,"lap":3569,"Ġhelper":3570,"packets":3571,"HC":3572,"UB":3573,"xd":3574,"curr":3575,"AVFrame":3576,"Ġcompute":3577,"Ġhead":3578,"DCT":3579,"beta":3580,"ĠVC":3581,"matroska":3582,"Ġsignal":3583,"SLO":3584,"spe":3585,"stereo":3586,"cm":3587,"xb":3588,"uto":3589,"Ġdinfo":3590,"ummy":3591,"apic":3592,"LICE":3593,"ution":3594,"ioctl":3595,"DIAN":3596,"ĠUINT":3597,"packed":3598,"blocksize":3599,"LEFT":3600,"decoder":3601,"ConvBuffer":3602,"YS":3603,"implemented":3604,"mfc":3605,"coefs":3606,"avio":3607,"refs":3608,"Ġspace":3609,"msix":3610,"Header":3611,"PADD":3612,"Ġter":3613,"orbis":3614,"\\\\":3615,"ĠFI":3616,"Ġwant":3617,"RET":3618,"feed":3619,"ĠMODE":3620,"IMA":3621,"lv":3622,"Ġloop":3623,"psr":3624,"OPTION":3625,"Sig":3626,"dv":3627,"hing":3628,"pd":3629,"ince":3630,"Ġfin":3631,"Ġrw":3632,"select":3633,"arge":3634,"Ġarm":3635,"Ġbig":3636,"TAL":3637,"ĠIRQ":3638,"dstW":3639,"rel":3640,"Ġ17":3641,"Ġqiov":3642,"Ġstrerror":3643,"ENDIAN":3644,"ĠsrcStride":3645,"Lo":3646,"Ġscore":3647,"Ġbr":3648,"ĠFor":3649,"subtitle":3650,"Ġsource":3651,"tap":3652,"hed":3653,"ayload":3654,"lient":3655,"deblock":3656,"proxy":3657,"Ġregisters":3658,"opp":3659,"strnc":3660,"ĠdstStride":3661,"Ġparameters":3662,"##":3663,"BY":3664,"PTE":3665,"ht":3666,"son":3667,"Ġbet":3668,"Ġbeta":3669,"arning":3670,"Ġmsi":3671,"encoder":3672,"96":3673,"Ġ][":3674,"Ġsync":3675,"Ġtd":3676,"arith":3677,"35":3678,"pes":3679,"ĠSET":3680,"ĠDO":3681,"WORD":3682,"man":3683,"ater":3684,"Ġvisit":3685,"master":3686,"components":3687,"Ġflash":3688,"dim":3689,"iple":3690,"COLOR":3691,"Ġcy":3692,"Ġmips":3693,"Ġrom":3694,"ĠIF":3695,"lbw":3696,"ĠSDL":3697,"frm":3698,"punpcklbw":3699,"ti":3700,"convert":3701,"Ġmmu":3702,"Unknown":3703,"Ġmatch":3704,"ĠPRId":3705,"tick":3706,"vlan":3707,"ĠACPI":3708,"ĠOBJECT":3709,"DIRE":3710,"Input":3711,"props":3712,"TSP":3713,"BOOKE":3714,"vol":3715,"xhci":3716,"ume":3717,"Ġinstruction":3718,"ĉĉĠĠĠ":3719,"eth":3720,"Ġthem":3721,"PRED":3722,"emuO":3723,"xBF":3724,"mips":3725,"rtc":3726,"ities":3727,"qc":3728,"rtsp":3729,"Ġretval":3730,"ĠSPAPR":3731,"ĠQERR":3732,"interlaced":3733,"509":3734,"DU":3735,"ioport":3736,"mxf":3737,"yte":3738,"Ġfp":3739,"Ġfid":3740,"API":3741,"Ġhandler":3742,"EF":3743,"FR":3744,"NOW":3745,"139":3746,"IVE":3747,"Index":3748,"aiocb":3749,"Ġsnapshot":3750,"dyn":3751,"msp":3752,"ĠCASE":3753,"parser":3754,"picref":3755,"vent":3756,"Ġgraph":3757,"Ġds":3758,"endian":3759,"found":3760,"Visitor":3761,"ORDER":3762,"Ġchange":3763,"CHANNEL":3764,"bgr":3765,"ule":3766,"Ġelf":3767,"Ġim":3768,"oformat":3769,"ormal":3770,"hflags":3771,"tle":3772,"root":3773,"ency":3774,"hwaccel":3775,"Video":3776,"ner":3777,"reco":3778,"Ġic":3779,"ĠsrcW":3780,"prom":3781,"probe":3782,"descriptor":3783,"Tr":3784,"TLB":3785,"scope":3786,"Ġfunction":3787,"Ġreserved":3788,"Ġlin":3789,"watch":3790,"receive":3791,"Ġcblk":3792,"ĠNo":3793,"ĠGIC":3794,"ĠSWS":3795,"');":3796,"pop":3797,"vLum":3798,"ĉĠ":3799,"ĠREAD":3800,"std":3801,"Ġdrv":3802,"Ġoverflow":3803,"quality":3804,"SKA":3805,"Ġbound":3806,"TROSKA":3807,"PADDING":3808,":\"":3809,"cfi":3810,"endor":3811,"Ġtranslation":3812,"CED":3813,"aligned":3814,"mspel":3815,")-":3816,"Mmx":3817,"VAR":3818,"ens":3819,"Ġpdu":3820,"push":3821,"ĠSTA":3822,"Ġ<<=":3823,"cial":3824,"Ġcannot":3825,"noise":3826,"TED":3827,"Can":3828,"EP":3829,"TL":3830,"Ġavformat":3831,"bitrate":3832,"plx":3833,"ĠLo":3834,"progress":3835,"ĠTLB":3836,"ĠBIOS":3837,"BufSize":3838,"SB":3839,"hds":3840,"rv":3841,"Ġvfio":3842,"Ġavg":3843,"driver":3844,"tracks":3845,"PKT":3846,"Ġdecoded":3847,"Ġspecified":3848,"TOP":3849,"Ġgr":3850,"Ġraw":3851,"Status":3852,"36":3853,"rm":3854,"alle":3855,"Ġstring":3856,"TIVE":3857,"crement":3858,"Ġ(\"":3859,"Ġwait":3860,"Ġsection":3861,"permut":3862,"ĠReg":3863,"Ġdoesn":3864,"Ġclear":3865,"AIO":3866,"Ġmo":3867,"ROM":3868,",%":3869,"200":3870,"orig":3871,"perm":3872,"Ġinitialize":3873,"counter":3874,"lag":3875,"outbuf":3876,"ĠCH":3877,"ational":3878,"ĠRTSP":3879,"Ġmodel":3880,"mig":3881,"Ġregs":3882,"iommu":3883,"phb":3884,"parameters":3885,"VERSION":3886,"17":3887,"vChr":3888,"ctb":3889,"Ġdecoding":3890,"logfile":3891,"INTR":3892,"EO":3893,"bottom":3894,"Ġreference":3895,"Ġus":3896,"ceiv":3897,"STOP":3898,"Ġcodebook":3899,"keyframe":3900,"session":3901,"strncmp":3902,"Machine":3903,"ĠMATROSKA":3904,"06":3905,"23":3906,"UPC":3907,"tex":3908,"mbol":3909,"(\"_":3910,"DIS":3911,"quir":3912,"modrm":3913,"Ġactual":3914,"255":3915,");\\":3916,"than":3917,"ĠTr":3918,"planes":3919,"allocate":3920,"Ġdecoder":3921,"tt":3922,"Ġcfg":3923,"mpl":3924,"4210":3925,"PAL":3926,"cd":3927,"lat":3928,"protocol":3929,"plic":3930,"ients":3931,"Ġabs":3932,"alias":3933,"Ġlarge":3934,"ARRAY":3935,"Ġpresent":3936,"Ġssize":3937,"Ġvlc":3938,"ĠAML":3939,"Ġdisk":3940,"CLOCK":3941,"ESP":3942,"Rational":3943,"Ġ\"/":3944,"argv":3945,"Ġsetup":3946,"emuOpts":3947,"(-":3948,"XA":3949,"Ġright":3950,"Ġunknown":3951,"cleanup":3952,"xffffffff":3953,"huff":3954,"Ġbd":3955,"ĠTB":3956,"nection":3957,"Ġabi":3958,"UPCAST":3959,")/":3960,"Ġgroup":3961,"Ġdist":3962,"RAN":3963,"ixBuf":3964,"ĠDMA":3965,"dimm":3966,"ssd":3967,"Request":3968,"ocketAddress":3969,"SL":3970,"VID":3971,"remaining":3972,"ĠĠĠĠĠĠĠĠĠĠĠĠĠĠĠĠĠĠĠĠĠĠĠĠĠĠĠĠĠĠĠĠĠĠĠĠĠĠĠĠĠĠĠĠĠĠĠĠ":3973,"Ġfdt":3974,"vhost":3975,"ulated":3976,"ĠĠĠĠĠĠĠĠĠĠĠĠĠĠĠĠĠĠĠĠĠĠĠĠĠĠĠĠĠĠĠĠĠĠĠĠĠĠĠĠĠĠĠĠĠĠ":3977,"ĠHE":3978,"());":3979,"Ġcnt":3980,"Ġrx":3981,"Ġpriv":3982,"PTR":3983,"ization":3984,"onf":3985,"INDEX":3986,"Ġyet":3987,"layer":3988,"compressed":3989,"dual":3990,"ACCE":3991,"!=":3992,"ĠMAP":3993,"lav":3994,"Ġht":3995,"throt":3996,"AVFilter":3997,"Ġcomple":3998,"ardware":3999,"insert":4000,"Ġ(&":4001,"sbr":4002,"Ġpredictor":4003,"ehci":4004,"klass":4005,"Ġpayload":4006,"ĠCF":4007,"Ġasync":4008,"440":4009,"TT":4010,"visitor":4011,"reslevel":4012,"Ġbitmap":4013,"Ref":4014,"pwrite":4015,"search":4016,"Ġpad":4017,"Ġencoding":4018,"800":4019,"htab":4020,"Ġdts":4021,"Ġwindow":4022,"ramerate":4023,"Sample":4024,"Ġlabel":4025,"ĠĠĠĠĠĠĠĠčĊ":4026,"draw":4027,"tbl":4028,"THREAD":4029,".%":4030,"KIND":4031,"ĠVFIO":4032,"IM":4033,"samp":4034,"Ġape":4035,"lookup":4036,"Ġ100":4037,"Ġdma":4038,"extended":4039,"Ġhz":4040,"Ġ*)(":4041,"NB":4042,"cu":4043,"Ġsmp":4044,"ener":4045,"DEFAULT":4046,"Ġsigned":4047,"omap":4048,"Ġsure":4049,"Ġintra":4050,"Ġprogram":4051,"...":4052,"]].":4053,"ered":4054,"Ġcm":4055,"Ġfrag":4056,"Ġreply":4057,"Ġ19":4058,"iod":4059,"ĠMpegEncContext":4060,"CHINE":4061,"MEMORY":4062,"abilities":4063,"JPEG":4064,"alf":4065,"ily":4066,"Ġrai":4067,"RRR":4068,"IAL":4069,"Ġseek":4070,"CONST":4071,"No":4072,"ced":4073,"Ġsb":4074,"mpu":4075,"imum":4076,"CONTRO":4077,"essage":4078,"Ġsectors":4079,"ĠDISAS":4080,"ĠRegister":4081,"fm":4082,"inst":4083,"elif":4084,"ish":4085,"PACKET":4086,"Ġpict":4087,"response":4088,"saddr":4089,"encoding":4090,"ambd":4091,"Ġdv":4092,"ĠQIO":4093,"HEVC":4094,"CONTROL":4095,"ambda":4096,"'re":4097,"BIG":4098,"DB":4099,"incr":4100,"Ġ480":4101,"crypto":4102,"ĠChar":4103,"rection":4104,"dent":4105,"Ġ--":4106,"TAS":4107,"Ġehci":4108,"HI":4109,"vfio":4110,"wl":4111,"Ġtwo":4112,"PERM":4113,"Ġmany":4114,"goto":4115,"Ġsch":4116,"clu":4117,"ible":4118,"bridge":4119,"Queue":4120,"SV":4121,"Vector":4122,"'):":4123,"\\\"\",":4124,"480":4125,"nibble":4126,"SERT":4127,"PAR":4128,"]],":4129,"Ġdump":4130,"points":4131,"QPEL":4132,"ĠAVDISCARD":4133,"TABLE":4134,"disk":4135,"INSERT":4136,"Ġthey":4137,"position":4138,"Ġextra":4139,"Ġcalc":4140,"Band":4141,"fix":4142,"nut":4143,"qcow":4144,"Ġlock":4145,"Ġbpp":4146,"Ġselect":4147,"defined":4148,"Ġimg":4149,"UID":4150,"XT":4151,"lib":4152,"unused":4153,"Ġqio":4154,"term":4155,"Ġattr":4156,"GOTO":4157,"Ġnv":4158,"Ġslices":4159,"scratch":4160,"SID":4161,"lots":4162,"Ġ28":4163,"sword":4164,"icount":4165,"expr":4166,"acpi":4167,",\"":4168,"sin":4169,"Ġ(-":4170,"Ġca":4171,"roblock":4172,"initialize":4173,"Ġthrough":4174,"Ġenough":4175,"nsupported":4176,"Ġmethod":4177,"DIRECT":4178,"Dest":4179,"MpegEncContext":4180,"Th":4181,"Ġdebug":4182,"DeviceState":4183,"PM":4184,"Ġil":4185,"Ġsvq":4186,"andi":4187,"Ġcoun":4188,"movl":4189,"ĠPRIu":4190,"temps":4191,"ym":4192,"Ġtswap":4193,"Ġpas":4194,"ĠSIZE":4195,"itional":4196,"scantable":4197,"checksum":4198,"EQ":4199,"bv":4200,"hb":4201,"INK":4202,"++];":4203,"Ġstl":4204,"ETER":4205,"cblk":4206,"Ġprec":4207,"Ġ\"\\\"\\":4208,"self":4209,"PARAMETER":4210,"Back":4211,"VNC":4212,"merge":4213,"strict":4214,"ĠSCS":4215,"need":4216,"Exp":4217,"RST":4218,"REMO":4219,"Ġ22":4220,"asl":4221,"mapped":4222,"ARCH":4223,"ĠOMAP":4224,"msd":4225,"(((":4226,"OWN":4227,"--------":4228,"BYTE":4229,"bias":4230,"xC":4231,"Ġserver":4232,"Ġwr":4233,"REP":4234,"Client":4235,"Float":4236,"dequant":4237,"enter":4238,"ĠInt":4239,"TEMP":4240,"ccess":4241,"proc":4242,"nip":4243,"Ġbitrate":4244,"Ġpackets":4245,"console":4246,"Ġtcp":4247,"FORMAT":4248,">=":4249,"hist":4250,"ima":4251,"Ġresp":4252,"calc":4253,"BOSE":4254,"Pro":4255,"remove":4256,"Ġrv":4257,"ĠVM":4258,"ĠQObject":4259,"outputs":4260,"Ġabove":4261,"Get":4262,"VirtIO":4263,"TIC":4264,"Ġdirect":4265,"Ġaligned":4266,"BDRV":4267,"null":4268,"pread":4269,"sidual":4270,"fft":4271,"Ġgain":4272,"Ġrb":4273,"four":4274,"crop":4275,"Ġprofile":4276,"PRIx":4277,"ebml":4278,"38":4279,"SLICE":4280,"devfn":4281,"oft":4282,"verse":4283,"ape":4284,"rive":4285,"edit":4286,"peat":4287,"resync":4288,"Ġbeen":4289,"ared":4290,"Ġdevices":4291,"dat":4292,"migration":4293,"super":4294,"Ġvaddr":4295,"changed":4296,"ĠMM":4297,"slirp":4298,"unknown":4299,"Ġclip":4300,"Ġsingle":4301,"anular":4302,"ĠGP":4303,"ĠWR":4304,"minus":4305,"ĠRead":4306,"NTQ":4307,"anularity":4308,"bank":4309,"ged":4310,"com":4311,"Ġpstr":4312,"ations":4313,"cast":4314,"expand":4315,"Ġvmstate":4316,"cirrus":4317,"wt":4318,"Ġtp":4319,"PContext":4320,"ĠDC":4321,"mdct":4322,"SOFT":4323,"overlap":4324,"nofail":4325,"ceived":4326,"Ġsince":4327,"Ġcp":4328,"LEV":4329,"Ġcoded":4330,"Ġhash":4331,"Ġneeds":4332,"Ġextent":4333,"Ġmetadata":4334,"Ġsockaddr":4335,"80000000":4336,"DPRINTF":4337,"Link":4338,"inv":4339,"Ġmr":4340,"Ġour":4341,"Ġobj":4342,"Ġstuff":4343,"cision":4344,"Ġcontainer":4345,"errupts":4346,"delayed":4347,"VERBOSE":4348,"WARD":4349,"iscsilun":4350,"SLOT":4351,"Ġraise":4352,"VB":4353,"lector":4354,"here":4355,"Ġtoken":4356,"ĠQDEC":4357,"DATE":4358,"GAIN":4359,"ĠQDECREF":4360,"BIL":4361,"pend":4362,"SUC":4363,"SPA":4364,"mid":4365,"inc":4366,"ĠFFABS":4367,"LUSTER":4368,"asi":4369,"RESET":4370,"Ġagain":4371,"item":4372,"Ġwould":4373,"ĠEx":4374,"symbol":4375,"rem":4376,"second":4377,"dram":4378,")),":4379,"RATE":4380,"syn":4381,"nos":4382,"wise":4383,"ues":4384,"nbd":4385,"compute":4386,"formation":4387,"SrcPtr":4388,"259":4389,"Hand":4390,"cand":4391,"fat":4392,"uks":4393,"ward":4394,"reader":4395,"hevc":4396,"icate":4397,"ĠĠĠĠĠĠĠĠĠĠĠĠĠĠĠĠĠĠĠĠĠĠĠĠĠĠĠĠĠĠĠĠĠĠĠĠĠĠĠĠĠĠĠĠĠĠĠĠĠ":4398,"neg":4399,"ĠRT":4400,"board":4401,"TTO":4402,"Ġvq":4403,"Ġdriver":4404,"ĠsrcSlice":4405,"FUNCTION":4406,"07":4407,"<=":4408,"pq":4409,"apt":4410,"transport":4411,"SUCCESS":4412,"'))":4413,"FETCH":4414,"binfo":4415,"agic":4416,"Ġproxy":4417,"CMP":4418,"allow":4419,"magic":4420,"Ġ25":4421,"ĠMMU":4422,"FilterPos":4423,"DBG":4424,"Ġfixed":4425,"Ġvenc":4426,"split":4427,"ARG":4428,"process":4429,"script":4430,"eof":4431,"rep":4432,"addi":4433,"Ġexist":4434,"cancel":4435,"87":4436,"bad":4437,"rec":4438,"uri":4439,"strlc":4440,"Ġmatrix":4441,"Ġterm":4442,"EB":4443,"FULL":4444,"hex":4445,"Ġrtsp":4446,"ivec":4447,"andard":4448,"dsty":4449,"backend":4450,"BRID":4451,"rop":4452,"Ġsurface":4453,"Ġpal":4454,"cursor":4455,"Ġcontain":4456,"ĠBlockDriver":4457,"Unable":4458,":\",":4459,"unmap":4460,"EXIT":4461,"chrDst":4462,"tcp":4463,"iew":4464,"ĠSCSI":4465,"Ser":4466,"aries":4467,"Ġogg":4468,"tiles":4469,"ACTIVE":4470,"8259":4471,"sty":4472,"ĠvChr":4473,"ever":4474,"97":4475,"PixBuf":4476,"oi":4477,"recv":4478,"Ġti":4479,"dexec":4480,"ixel":4481,"ALLOCZ":4482,"OT":4483,"WIN":4484,"Ġedge":4485,"attach":4486,"alac":4487,"export":4488,"strcase":4489,"above":4490,"initial":4491,"orizont":4492,"strcasecmp":4493,"amily":4494,"ĠFD":4495,"tags":4496,"INTERLA":4497,"fmts":4498,")+":4499,"CU":4500,"mjpeg":4501,"Ġ];":4502,"Ġss":4503,"aml":4504,"Ġremove":4505,"Ġpp":4506,"failed":4507,"SKIP":4508,"(%%":4509,"Ġcoeffic":4510,"ĠSDHC":4511,"ability":4512,"ELEM":4513,"threshold":4514,"IX":4515,"ndef":4516,"Ġpending":4517,"Ġnc":4518,"Ġqapi":4519,"RES":4520,"thing":4521,"Ġke":4522,"Ġpossible":4523,"FLOAT":4524,"SPACE":4525,"orizontal":4526,"Unsupported":4527,"qrt":4528,"Ġreport":4529,"extension":4530,"Ġopn":4531,"ĠFMT":4532,"Ġenable":4533,"filters":4534,"MUL":4535,"Ġslirp":4536,"EM":4537,"Ġimplement":4538,"Ġtx":4539,"Ġmigration":4540,"Ġdprintf":4541,"Ġdown":4542,"Ġov":4543,"ifndef":4544,"Ġstop":4545,"Ġuvsrc":4546,"Ġldl":4547,"NV":4548,"Ġsup":4549,"Ġ\");":4550,"Ġhapp":4551,"ĠNote":4552,"Ġste":4553,"ressive":4554,"SrcY":4555,"multi":4556,"SF":4557,"Task":4558,"json":4559,"ous":4560,"ranges":4561,"rev":4562,"ults":4563,"stead":4564,"Ġactive":4565,"Ġ\"\",":4566,"ished":4567,"Ġbelow":4568,"DIV":4569,"ection":4570,"zeroes":4571,"PPCState":4572,"ification":4573,"Picture":4574,"ĠNE":4575,"Ġbug":4576,"evm":4577,"LEVEL":4578,"BRIDGE":4579,"erent":4580,"pages":4581,"Ġmagic":4582,"ĠvLum":4583,"STO":4584,"ĠRTAS":4585,"final":4586,"4000":4587,"Def":4588,"SM":4589,"vfp":4590,"intr":4591,"urb":4592,"Ġ21":4593,"scall":4594,"Ġconnect":4595,"Ġalso":4596,"Ġ63":4597,"Ġgraphic":4598,"FREG":4599,"xA":4600,"onitor":4601,"Ġpes":4602,"peer":4603,"Ġlib":4604,"Ġ\\\"":4605,"SHA":4606,"FTN":4607,"QP":4608,"]][":4609,"wav":4610,"Ġmarker":4611,"Ġind":4612,"loglevel":4613,"Ġenabled":4614,"xfff":4615,"Ġpstrcpy":4616,"gt":4617,"ges":4618,"nx":4619,"Ġpd":4620,"avevm":4621,"LAN":4622,"memcmp":4623,"TSUP":4624,"Ġevery":4625,"callback":4626,"Ġmatroska":4627,"snapshots":4628,"Ġmultiple":4629,"Ġillegal":4630,"FLT":4631,"aac":4632,"Ġiter":4633,"utes":4634,"ĠAVCOL":4635,"101":4636,"STATIC":4637,"disable":4638,"BufIndex":4639,"ictionary":4640,"xendev":4641,"hv":4642,"vendor":4643,"ĠĠĠĠĠĠĠĠĠĠĠĠĠĠĠĠĠĠĠĠĠĠĠĠĠĠĠĠĠĠĠĠĠĠĠĠĠĠĠĠĠĠĠĠĠĠĠĠĠĠ":4644,"ĠMPC":4645,"events":4646,"show":4647,"SRC":4648,"Ġiovec":4649,"Output":4650,"psrlq":4651,"REMOVE":4652,"KEN":4653,"trunc":4654,"Ġqscale":4655,"LOW":4656,"ives":4657,"lj":4658,"ENCODER":4659,"Ġcore":4660,"Ġarray":4661,"Ġcompat":4662,"ĠINIT":4663,"Ġcoroutine":4664,"Ġpartition":4665,"Ġtransfer":4666,"LPC":4667,"sv":4668,"Ġtap":4669,"Ġvd":4670,"maps":4671,"Ġconsumed":4672,"busdev":4673,"CATION":4674,"macaddr":4675,"Ġsystem":4676,"CLUSTER":4677,"SON":4678,"decl":4679,"sei":4680,"Ġclock":4681,"devs":4682,"vertical":4683,"floor":4684,"sur":4685,"rector":4686,"tra":4687,"Ġrdma":4688,"mmco":4689,"MAGIC":4690,"headers":4691,"Ġposition":4692,"Ġspecial":4693,"??":4694,"bt":4695,"izer":4696,"uart":4697,"Ġstat":4698,"Ġauth":4699,"srcW":4700,"VIRT":4701,"formance":4702,"RDWR":4703,"AUTO":4704,"faces":4705,"10000":4706,"ces":4707,"medi":4708,"ason":4709,"Ġxhci":4710,"Ġshow":4711,"tail":4712,"lerate":4713,"container":4714,"Ġvirtual":4715,"AAC":4716,"HID":4717,"HAS":4718,"bg":4719,"ĠAVFMT":4720,"Ġunlock":4721,"comple":4722,"ĠformatConvBuffer":4723,"ween":4724,"60":4725,"Audio":4726,"bin":4727,"cred":4728,"eip":4729,"Ġsyn":4730,"encrypt":4731,"Ġfour":4732,"IOVector":4733,"srcStride":4734,"interle":4735,"EOF":4736,"PowerPC":4737,"LAST":4738,"ĠRDMA":4739,"ĠUn":4740,"linker":4741,"ĠBLKDBG":4742,"brcondi":4743,"Ġpadd":4744,"ĠAAC":4745,"esp":4746,"formats":4747,"STEREO":4748,"lba":4749,"Ġcounter":4750,"8139":4751,"UYV":4752,"bm":4753,"sar":4754,"ĠVLC":4755,"ĠIDE":4756,"service":4757,"singlestep":4758,"permutation":4759,"512":4760,"HAVE":4761,"Ġdim":4762,"bucket":4763,"DELAY":4764,"ETH":4765,"ĠFLA":4766,"compare":4767,"ecx":4768,"Ġbitstream":4769,"Ġreslevel":4770,"meta":4771,"Char":4772,"ĠWRITE":4773,"LIT":4774,"jo":4775,"inbuf":4776,"atom":4777,"ĠAU":4778,"prm":4779,"Ġinlink":4780,"prediction":4781,"Ġwithout":4782,"ebx":4783,"ags":4784,"just":4785,"requ":4786,"iomem":4787,"sdp":4788,"ĠJpeg":4789,"Ġnnz":4790,"trace":4791,"escr":4792,"Ġknow":4793,"Ġcomplete":4794,"Ġparams":4795,"othread":4796,"'\",":4797,"duct":4798,"Ġfloor":4799,"Ġforce":4800,"isk":4801,"Ġassum":4802,"ĠfilterSize":4803,"IGHT":4804,"Ġ^=":4805,"ĠPCIDevice":4806,"Dither":4807,"Event":4808,"VD":4809,"WA":4810,"fra":4811,"ERNAL":4812,"Ġ23":4813,"MACHINE":4814,"ĠMSI":4815,"ITLE":4816,"Ġjob":4817,"period":4818,"INTERLACED":4819,"TITLE":4820,"cat":4821,"ih":4822,"savevm":4823,"Ġicodec":4824,"amic":4825,"ELEMS":4826,"dy":4827,"Ġsse":4828,"ernal":4829,"iter":4830,"avc":4831,"Ġhd":4832,"endptr":4833,"shake":4834,"ĠEL":4835,"ĠInit":4836,"Ġiscsilun":4837,"AUTH":4838,"iority":4839,"Dictionary":4840,"LV":4841,"]\"":4842,"aff":4843,"media":4844,"FIXED":4845,"dog":4846,"String":4847,"cape":4848,"sdt":4849,"legacy":4850,"PHA":4851,"PATCH":4852,"Sign":4853,"border":4854,"Ġremaining":4855,"Ġmkv":4856,"ility":4857,"(\"\\":4858,"ĠUART":4859,"Ġ\"-":4860,"Ġconvert":4861,"ĠTRA":4862,"Ġoperation":4863,"Ġstreams":4864,"ENOTSUP":4865,"compatible":4866,"qobject":4867,"the":4868,"Ġdiv":4869,"RED":4870,"Ġinstead":4871,"compression":4872,"Ġprediction":4873,"Ġbetween":4874,"MachineState":4875,"Ġstereo":4876,"crc":4877,"cipher":4878,"Ġnd":4879,"tect":4880,"ĠBS":4881,"SWS":4882,"IFY":4883,"ĠPROT":4884,"allel":4885,"Packet":4886,"POWERPC":4887,"pow":4888,"Ġpid":4889,"Ġdx":4890,"strstart":4891,"Ġhp":4892,"ENCE":4893,"Ġmain":4894,"UEUE":4895,"ĠQEMUIOVector":4896,"LP":4897,"Range":4898,"Set":4899,"ia":4900,"tol":4901,"decoding":4902,"Ġcmp":4903,"CALL":4904,"EXTERNAL":4905,"500":4906,"rets":4907,"sist":4908,"Ġ/=":4909,"DEMUX":4910,"types":4911,"ĠSIG":4912,"iption":4913,"AVRational":4914,"BAT":4915,"swb":4916,"ENTRY":4917,"Ġdifferent":4918,"SPECI":4919,"recogn":4920,"Ġ],":4921,"Ġgdb":4922,"ETTE":4923,"RAC":4924,"RATION":4925,"ĠCMD":4926,"ĠOn":4927,"GR":4928,"WEL":4929,"increment":4930,"Ġits":4931,"segs":4932,"Ġfol":4933,"uess":4934,"Ġinformation":4935,"mdk":4936,"ĠdstFormat":4937,"Ġoffs":4938,"PROTO":4939,"EMP":4940,"OL":4941,"dummy":4942,"anar":4943,"ĠRRR":4944,"PRIu":4945,"INEAR":4946,"mouse":4947,"-+":4948,"ahci":4949,"hint":4950,"Ġpost":4951,"otplug":4952,"COME":4953,"mds":4954,"Ġencoded":4955,"ldq":4956,"BAFF":4957,"Ġprob":4958,"\")));":4959,"Ġeven":4960,"Display":4961,"PATCHWEL":4962,"PATCHWELCOME":4963,"Ġpe":4964,"arse":4965,"Ġthese":4966,"ĠBDRVQ":4967,"hyper":4968,"/(":4969,"nnz":4970,"ins":4971,"inline":4972,"orts":4973,"ĠPowerPC":4974,"plit":4975,"Ġseq":4976,"DISP":4977,"timeout":4978,"pare":4979,"EXEC":4980,"Ġprog":4981,"invalidate":4982,"erties":4983,"BAR":4984,"Int":4985,"Ġunt":4986,"Ġalac":4987,"Ġmedia":4988,"ized":4989,"raise":4990,"ĠDCT":4991,"Req":4992,"PIXEL":4993,"PREFETCH":4994,"MIPSState":4995,"CAL":4996,"Func":4997,"Per":4998,"auto":4999,"mar":5000,"oice":5001,"Ġ]=":5002,"decorr":5003,"ĠsPAPR":5004,"adt":5005,"sche":5006,"Ġexpected":5007,"compose":5008,"blkdev":5009,"scanf":5010,"Ġcoeffs":5011,"ALIGNED":5012,"BIGENDIAN":5013,"OPC":5014,"ddr":5015,"ssp":5016,"Ġempty":5017,"Ġbps":5018,"ally":5019,"Ġmark":5020,"chapter":5021,"devtree":5022,"IDTH":5023,"pcr":5024,"SWAP":5025,"Ġpadding":5026,"CNT":5027,"DOWN":5028,"IST":5029,"dither":5030,"ldst":5031,"vnc":5032,"Ġmid":5033,"Ġvf":5034,"nodes":5035,"._":5036,"framerate":5037,"mant":5038,"nm":5039,"restart":5040,"reserved":5041,"condexec":5042,"tered":5043,"heads":5044,"Ġpointer":5045,"initialized":5046,"MR":5047,"},":5048,"Ġchanged":5049,"Ġdie":5050,"Ġtempor":5051,"PROG":5052,"attrib":5053,"MSIX":5054,"fps":5055,"marker":5056,"uy":5057,"Ġqstring":5058,"Ġluma":5059,"ĠQXL":5060,"subband":5061,"Ġdisabled":5062,"ĠARRAY":5063,"NGLE":5064,"Ġmissing":5065,"Cannot":5066,"riveInfo":5067,"PFX":5068,"aint":5069,"inner":5070,"avs":5071,"ĠVirt":5072,"pointer":5073,"altivec":5074,"Ġlines":5075,"KVM":5076,"MSR":5077,"fpu":5078,"cts":5079,"unimplemented":5080,"avf":5081,"REGS":5082,"ĠHF":5083,"Ġprotocol":5084,"ording":5085,"Ġallocated":5086,"Num":5087,"TLS":5088,"power":5089,"Ġics":5090,"orage":5091,"strip":5092,"Ġhardware":5093,"ash":5094,"ENSE":5095,"Ġcoding":5096,"Ġoutlink":5097,"PASS":5098,"Ġptrdiff":5099,"running":5100,"MmxFilter":5101,"GHT":5102,"WB":5103,"rsp":5104,"unpack":5105,"ĠAVFormatContext":5106,"ĠBdrv":5107,"ĠVGA":5108,"Ġfactor":5109,"udp":5110,"Ġbswap":5111,"disp":5112,"switch":5113,"*)(":5114,"Ġdrop":5115,"Ġ!!(":5116,"ĠTRACE":5117,"Ġpages":5118,"Ġnormal":5119,"proto":5120,"Ġlater":5121,"ĠNet":5122,"ĠMPEG":5123,"ALPHA":5124,"STS":5125,"Ġwhat":5126,"speed":5127,"requency":5128,"slots":5129,"Ġbottom":5130,"Ġavc":5131,"MANGLE":5132,"dstY":5133,"USH":5134,"__);":5135,"chrSrc":5136,"Ġvert":5137,"pmadd":5138,"SUBTITLE":5139,"ToYV":5140,"Ġspeed":5141,"ĠFUNC":5142,"vaddr":5143,"Ġnut":5144,"ĠSh":5145,"location":5146,"ĠxInc":5147,"msmpeg":5148,"Ġleast":5149,"QEMUFile":5150,"SCALEYUV":5151,"subs":5152,"63":5153,"IMM":5154,"PET":5155,"QUEUE":5156,"Table":5157,"UAL":5158,"lsb":5159,"Ġmight":5160,"edx":5161,"RAW":5162,"BLOCKS":5163,"scaling":5164,"ĠHEVC":5165,"Ġuntil":5166,"fmul":5167,"psll":5168,"Ġsearch":5169,"query":5170,"component":5171,"(!(":5172,"lines":5173,"ches":5174,"buckets":5175,"Ġfollow":5176,"Ġdmv":5177,"ĠAVDictionary":5178,"avr":5179,"ument":5180,"Ġ48":5181,"ĠDo":5182,"compno":5183,"Ġfiles":5184,"linux":5185,"deblocking":5186,"]>>":5187,"numa":5188,"tf":5189,"uuid":5190,"around":5191,"PATH":5192,"Ġargc":5193,"chunks":5194,"ĠCharDriverState":5195,")],":5196,":\\":5197,"Res":5198,"gop":5199,"gdb":5200,"ource":5201,"xattr":5202,"Ġglobal":5203,"extent":5204,"FFFD":5205,"Ġffm":5206,"Ġstrip":5207,"Ġsel":5208,"epel":5209,"segments":5210,"COMMA":5211,"straint":5212,"Ġhls":5213,"devices":5214,"ĠNUM":5215,"ĠSe":5216,"Ġnothing":5217,"Ġsws":5218,"crs":5219,"Ġargv":5220,"ched":5221,"execute":5222,"Ġfidp":5223,"27":5224,"CSR":5225,"rn":5226,"uFFFF":5227,"vring":5228,"ctts":5229,"ĠAVCodec":5230,"ĠQemuOpts":5231,"Ġ**)":5232,"OUTPUT":5233,"AIOCB":5234,"pmaddwd":5235,"Cry":5236,"ger":5237,"qmp":5238,"reorder":5239,"atures":5240,"drop":5241,"Ġro":5242,"outlink":5243,"ĠVA":5244,"Ġsee":5245,"quantize":5246,"alignment":5247,"secure":5248,"Ġcoefficients":5249,"77":5250,"smb":5251,"imer":5252,"ĠDriveInfo":5253,"evt":5254,"ĠOPT":5255,"FLASH":5256,"ROMA":5257,"progressive":5258,"DecodeContext":5259,"05":5260,"GT":5261,"function":5262,"ement":5263,"Ġqpci":5264,"Ġ'-":5265,"TEST":5266,"Ġioctl":5267,"Ġrequested":5268,"Ġignored":5269,";\\":5270,"WIDTH":5271,"hz":5272,"Ġahci":5273,"Ġpitch":5274,"Ġrl":5275,"Ġinet":5276,"ĠST":5277,"LAT":5278,"vmstate":5279,"zeros":5280,"FATAL":5281,"anslate":5282,"ENCDEC":5283,"\"(*":5284,"29":5285,"MBAFF":5286,"uFFFD":5287,"zstream":5288,"sts":5289,"Ġcpl":5290,"Ġcoef":5291,"Ġffio":5292,"LED":5293,"Ġbands":5294,"vision":5295,"BILINEAR":5296,"cid":5297,"sContext":5298,"Ġsplit":5299,"Ġfc":5300,"Ġ\"#":5301,"Ġvtd":5302,"ERNEL":5303,"Ġchrom":5304,"ĠSYS":5305,"mbs":5306,"FIRST":5307,"Ġsecs":5308,"Inter":5309,"private":5310,"goti":5311,"schro":5312,"CLI":5313,"RUN":5314,"ĠEN":5315,"encoded":5316,"Ġreceived":5317,"chron":5318,"skipped":5319,"BusDevice":5320,"Ġapply":5321,"HFLAG":5322,"[%":5323,"esi":5324,"targ":5325,"reached":5326,"erride":5327,"acl":5328,"iven":5329,"ident":5330,"ĉĉĠĠĠĠ":5331,"DICT":5332,"TOKEN":5333,"listener":5334,"ĠFIMD":5335,"RANGE":5336,"targphys":5337,"MF":5338,"rice":5339,"vcpu":5340,"Ġ*,":5341,"unix":5342,"Ġdy":5343,"lave":5344,"Ġioreq":5345,"Ġallowed":5346,"COMMAND":5347,"TN":5348,"cx":5349,"ness":5350,"Ġmig":5351,"++);":5352,"filterSize":5353,"Ġcurr":5354,"optind":5355,"rtas":5356,"findclk":5357,"(;;)":5358,"Handler":5359,"ĠBDRVQcow":5360,"85":5361,"SN":5362,"Sp":5363,"lfe":5364,"omet":5365,"pol":5366,"pnum":5367,"Ġrel":5368,"Ġvst":5369,"DEF":5370,"Ġdead":5371,"Ġunsupported":5372,"Ġsmk":5373,"Ġignore":5374,"CRYPTO":5375,"CD":5376,"XMM":5377,"lut":5378,"Ġscr":5379,"ĠSA":5380,"valpha":5381,"Ġisn":5382,"Ġ36":5383,"timers":5384,"ĠARCH":5385,"GUEST":5386,"ĠMASK":5387,"Ġsaved":5388,"Ġct":5389,"ĠĠĠĠĠĠĠĠĠĠĠĠĠĠĠĠĠĠĠĠĠĠĠĠĠĠĠĠĠĠĠĠĠĠĠĠĠĠĠĠĠĠĠĠĠĠĠĠĠĠĠ":5390,"Ġpiix":5391,"ticks":5392,"ĠSTAT":5393,"\"(%":5394,"User":5395,"eval":5396,"pattern":5397,"zz":5398,"LATE":5399,"Ġfault":5400,"subframe":5401,"CONNE":5402,"Ġreading":5403,"angu":5404,"Ġfields":5405,"ixelFormat":5406,"HDR":5407,"NEXT":5408,"SocketAddress":5409,"eq":5410,"family":5411,"vide":5412,"Ġlayout":5413,"inet":5414,"atial":5415,"alg":5416,"ĠAc":5417,"ĠNO":5418,"Ġcompressed":5419,"OM":5420,"Ġway":5421,"bswap":5422,"ĠDCA":5423,"ccw":5424,"Ġsetting":5425,"FACE":5426,"blt":5427,"POS":5428,"IMAGE":5429,"Monitor":5430,"cale":5431,"lambda":5432,"tk":5433,"zag":5434,"repeat":5435,"Ġtem":5436,"Ġpoll":5437,"igzag":5438,"sce":5439,"ĠRGB":5440,"Ġbackup":5441,"area":5442,"Ġphysical":5443,"ĠFUNCC":5444,"HAND":5445,"mppc":5446,"ther":5447,"asas":5448,"TEXT":5449,"206":5450,"ibm":5451,"ILD":5452,"eger":5453,"Ġfeed":5454,"Ġmeans":5455,"Backend":5456,"PORT":5457,"ohci":5458,"illegal":5459,"Ġword":5460,"ĠPro":5461,"Ġstack":5462,"IDCT":5463,"STD":5464,"ĠCR":5465,"ITY":5466,"Ġ60":5467,"syscall":5468,"Ġatt":5469,"Ġuses":5470,"261":5471,"Control":5472,"Ġtimeout":5473,"anguage":5474,"Pic":5475,"Ġfix":5476,"could":5477,"Ġmot":5478,"Ġwhere":5479,"faults":5480,"Ġ':":5481,"Ġeb":5482,"ĠFFALIGN":5483,"ACCEL":5484,"ĠInterrupt":5485,"Ġmigrate":5486,"Desc":5487,"Descr":5488,"IMX":5489,"Width":5490,"elp":5491,"ntax":5492,"countdown":5493,"Ġbegin":5494,"lyph":5495,"Ġ655":5496,"regions":5497,"ĠCPUs":5498,"LIB":5499,"ELPER":5500,"serve":5501,"Comp":5502,"cells":5503,"Ġparent":5504,"Ġfeatures":5505,"Ġencoder":5506,"Params":5507,"Ġrequired":5508,"Ġscaler":5509,"STORE":5510,"Ġboth":5511,"Ġmmap":5512,"inear":5513,"Ġconf":5514,"Ġoptim":5515,"redir":5516,"uintptr":5517,"filt":5518,"VIRTIO":5519,"ynos":5520,"ĠLoad":5521,"Net":5522,"iothread":5523,"qh":5524,"uring":5525,"Ġms":5526,"ĠAHCI":5527,"expected":5528,"Ġ%#":5529,"Ġstill":5530,"ĠRTP":5531,"states":5532,"flight":5533,"Ġdiscard":5534,"handlers":5535,"FAST":5536,"Ġvari":5537,"Ġcontroller":5538,"Ġhappen":5539,"recognition":5540,"78":5541,"ture":5542,"vorbis":5543,"Ġfarg":5544,"screen":5545,"conv":5546,"Ġopp":5547,"CPUMIPSState":5548,"Ġ???":5549,"Ġlet":5550,"POINT":5551,"fourcc":5552,"bil":5553,"Ġ00":5554,"lop":5555,"Ġpm":5556,"Ġpower":5557,"ategy":5558,"Ġhow":5559,"Ġstw":5560,"refcounts":5561,"sysmem":5562,"keys":5563,"Alpha":5564,"UNKNOW":5565,"Ġresponse":5566,"-=":5567,"Rx":5568,"]){":5569,"iff":5570,"Ġohci":5571,"Ġqtest":5572,"iso":5573,"ĠTD":5574,"Ġsequence":5575,"dimensions":5576,"UNKNOWN":5577,")]":5578,"76":5579,"SAVE":5580,"hs":5581,"none":5582,"ubuf":5583,"volatile":5584,"Ġmirror":5585,"utput":5586,"Ġdraw":5587,"ĠBIT":5588,"Ġstrcmp":5589,"ĠFRA":5590,"PROBE":5591,"ĠJPEG":5592,"eflags":5593,"ĠERROR":5594,"Ġmmx":5595,"nom":5596,"EDX":5597,"ToUV":5598,"52":5599,"lr":5600,"delete":5601,"Ġsaddr":5602,"algo":5603,"undef":5604,"ĠASE":5605,"Ġavi":5606,"ĠPO":5607,"dstStride":5608,"2048":5609,"Ġmodrm":5610,"88":5611,"CL":5612,"URL":5613,"VR":5614,"misc":5615,"venc":5616,"Ġpattern":5617,"iformat":5618,"andom":5619,"olution":5620,"VALID":5621,"slb":5622,"ROTT":5623,"Ġsubtitle":5624,"Ġlike":5625,"rectory":5626,"ROTTLE":5627,"emulated":5628,"INET":5629,"ofs":5630,"Ġendian":5631,"Ġchecksum":5632,"555":5633,"VERIFY":5634,"linder":5635,"marsh":5636,"ACK":5637,"FN":5638,"MIT":5639,"MENT":5640,"NK":5641,"pxa":5642,"restore":5643,"unce":5644,"Ġdid":5645,"make":5646,"umb":5647,"ĠVTD":5648,"Ġneg":5649,"interval":5650,"Comple":5651,"Sws":5652,"Ġfall":5653,"armv":5654,"Ġconnection":5655,"pcy":5656,"PED":5657,"SEL":5658,"aged":5659,"lower":5660,"ĠMAC":5661,"Encode":5662,"TTOM":5663,"PEND":5664,"mot":5665,"pio":5666,"basedev":5667,"backup":5668,"Ġmove":5669,"SIGN":5670,"ĠROUND":5671,"ĠSHOW":5672,"http":5673,"yteIOContext":5674,"throttle":5675,"-+-+":5676,"mkv":5677,"pk":5678,"Ġfb":5679,"Ġprefix":5680,"Ġvsrc":5681,"unsupported":5682,"chn":5683,"Ġstrtol":5684,"ĠHPET":5685,"dule":5686,"THROTTLE":5687,"Ġpair":5688,"ternate":5689,"psllq":5690,"BLK":5691,"pxor":5692,"framep":5693,"ĠVHD":5694,"Ġstrchr":5695,"way":5696,"Ġfdctrl":5697,"VIRTUAL":5698,"Ġrtc":5699,"plus":5700,"ĠOHCI":5701,"ĠOpen":5702,"uvbuf":5703,"Ġbackend":5704,"Ġdirty":5705,"********":5706,"lavio":5707,"=\"":5708,"Mask":5709,"NX":5710,"POWER":5711,"Ġfr":5712,"ĠOutput":5713,"CHUNK":5714,"grab":5715,"capabilities":5716,"Ġ(;;)":5717,"Ġwrong":5718,"ĠSTATUS":5719,"Test":5720,"mark":5721,"rr":5722,"ioreq":5723,"inition":5724,"pendent":5725,"WORDS":5726,"Thread":5727,"coming":5728,"Ġ\\\"%":5729,"SPECIFI":5730,"ometry":5731,"54":5732,"EE":5733,"Vnc":5734,"XF":5735,"sregs":5736,"svq":5737,"Ġbp":5738,"Ġlp":5739,"ĠPR":5740,"usage":5741,"ĠEA":5742,"ĠWrite":5743,"BOTTOM":5744,"ASM":5745,"Ġatomic":5746,"SubSample":5747,"vis":5748,"alty":5749,"Ġvms":5750,"Ġ204":5751,"blocker":5752,"ĠsrcFormat":5753,"filterPos":5754,"ANT":5755,"ĠARITH":5756,"Ġcurrently":5757,"PROFILE":5758,"Ġexecution":5759,"STRU":5760,"bstate":5761,"native":5762,"inlink":5763,"utdown":5764,"ĠDe":5765,"ĠFSL":5766,"fragments":5767,"Coeff":5768,"MOVNTQ":5769,"TIVEC":5770,"bS":5771,"poutbuf":5772,"rps":5773,"vps":5774,"inance":5775,"SIMPLE":5776,"ccontext":5777,"Ġcursor":5778,"flv":5779,"note":5780,"BufferRef":5781,"NOR":5782,"VIO":5783,"aa":5784,"qiv":5785,"ĠTA":5786,"Ġfunc":5787,"Ġdmin":5788,"FFF":5789,"pair":5790,"ĠXen":5791,"ENDOR":5792,"Ġcmdline":5793,"while":5794,"ITHER":5795,"Ġcause":5796,"roperty":5797,"ĠFRAME":5798,"VENDOR":5799,"af":5800,"ire":5801,"vmsd":5802,"view":5803,"ĠCOND":5804,"residual":5805,"cook":5806,"Ġsec":5807,"ĠlastIn":5808,"Ġplanes":5809,"Ġfilt":5810,"Ġparameter":5811,"Ġwritten":5812,"Ġheads":5813,"ysBusDevice":5814,"RIGHT":5815,"ObjectClass":5816,"LAYOUT":5817,"BAD":5818,"ination":5819,"dered":5820,"Ġsz":5821,"Ġcrc":5822,"Ġbt":5823,"Ġ26":5824,"ĠIt":5825,"Ġcodes":5826,"Count":5827,"USED":5828,"sense":5829,"pename":5830,"amaged":5831,"its":5832,"Ġdrc":5833,"chs":5834,"ERT":5835,"scf":5836,"initfn":5837,"pregs":5838,"xfffc":5839,"grp":5840,"Ġlook":5841,"password":5842,"Ġapic":5843,"Ġtext":5844,"ĠSVGA":5845,"pcms":5846,"ĠObject":5847,"ĠHPTE":5848,"Ġcompno":5849,"limits":5850,"ARMState":5851,"samplerate":5852,"Ġtemps":5853,"marshal":5854,")<<":5855,"fh":5856,"lt":5857,"Ġsregs":5858,"Ġgic":5859,"ipv":5860,"shr":5861,"REGION":5862,"Ġwhole":5863,"])*":5864,"ENOSYS":5865,"ĠDeviceClass":5866,"superblock":5867,"BM":5868,"raddr":5869,"ystem":5870,"Ġbank":5871,"Ġrec":5872,"Ġduring":5873,"Ġring":5874,"acct":5875,"LOB":5876,"MAL":5877,"ampling":5878,"ftell":5879,"Ġ#%":5880,"Ġcommon":5881,"Ġ4096":5882,"BI":5883,"TC":5884,"WT":5885,"Ġiv":5886,"Ġnever":5887,"Ġqpc":5888,"roken":5889,"emux":5890,"upling":5891,"conn":5892,"IDR":5893,"Ġbuflen":5894,"Ġstrto":5895,"Ġens":5896,"DISA":5897,"Ġsomet":5898,"RTC":5899,"HWACCEL":5900,"Crypto":5901,"(__":5902,"wp":5903,"zigzag":5904,"dend":5905,"Ġtm":5906,"ether":5907,"ably":5908,"ĠĠĠĠĠĠĠĠĠĠĠĠĠĠĠĠĠĠĠĠĠĠĠĠĠĠĠĠĠĠĠĠĠĠĠĠĠĠĠĠĠĠĠĠĠĠĠĠĠĠĠĠ":5909,"geot":5910,"ĠMake":5911,"ĠIV":5912,"DIMM":5913,"Ġnodes":5914,"ooter":5915,"psrlw":5916,"Ġfragment":5917,"400":5918,"Not":5919,"Scale":5920,"blob":5921,"gid":5922,"hls":5923,"iops":5924,"mirror":5925,"ored":5926,"pdate":5927,"qtest":5928,"ton":5929,"vui":5930,"bsf":5931,"movie":5932,"OPEN":5933,"Ġnecess":5934,"Ġcomponent":5935,"Ġmaximum":5936,"quantizer":5937,"colorspace":5938,"Ġlogout":5939,"ĠSCSW":5940,"DISABLE":5941,"Rate":5942,"WN":5943,"xvid":5944,"piix":5945,"using":5946,"ĠdstH":5947,"Ġprovide":5948,"SPAR":5949,"Ġiomem":5950,"ĠInput":5951,"Ġqpel":5952,"Ġcrop":5953,"Ġotherwise":5954,"quirk":5955,"EMPTY":5956,"WL":5957,"inal":5958,"Ġreason":5959,"cost":5960,"ĠCSR":5961,"ĠQTYPE":5962,"writeb":5963,"Ġener":5964,"Ġea":5965,"requests":5966,"paddw":5967,"padding":5968,"brcond":5969,"SwsContext":5970,"cflags":5971,"ele":5972,"las":5973,"Ġwav":5974,"Ġuvm":5975,"Ġrce":5976,"Ġstandard":5977,"Ġdetect":5978,"Ġeither":5979,"units":5980,"Ġesp":5981,"ĠControl":5982,"Ġkeep":5983,"Port":5984,"cert":5985,"pel":5986,"ččĊ":5987,"ĠLOAD":5988,"leep":5989,"loader":5990,"Ġplace":5991,"Ġroot":5992,"amped":5993,"fsP":5994,"LIMIT":5995,"eventfd":5996,"dsdt":5997,"connected":5998,"REQUEST":5999,"allowed":6000,"59":6001,"GTH":6002,"sPAPR":6003,"sth":6004,"alk":6005,"Ġyalpha":6006,"Ġtrk":6007,"mvd":6008,"Init":6009,"SHORT":6010,"Ġprobe":6011,"Ġidct":6012,"LumBuf":6013,"ChrBuf":6014,"GPIO":6015,"ASYNC":6016,"BT":6017,"Ġbl":6018,"alen":6019,"Ġvorbis":6020,"Ġerrors":6021,"Ġspecific":6022,"ĠAlloc":6023,"Ġassume":6024,"XVA":6025,"ou":6026,"att":6027,"Ġlc":6028,"IOC":6029,"Ġxvid":6030,"precision":6031,"SCR":6032,"Read":6033,"Ġcleanup":6034,"surfaces":6035,"On":6036,"bn":6037,"gsi":6038,"half":6039,"vf":6040,"alp":6041,"Ġmh":6042,"icast":6043,"ioContext":6044,"DEPRE":6045,"Ġchan":6046,"readv":6047,"clamped":6048,"Ġatoi":6049,"WARNINGS":6050,"ĠADD":6051,"Arch":6052,"primary":6053,"dynamic":6054,"Ġ\"\\\"\\\\":6055,"linders":6056,".\");":6057,"vnet":6058,"Ġcre":6059,"Ġ\"<":6060,"Ġvlan":6061,"igger":6062,"ĠMUL":6063,"shmem":6064,"signo":6065,"hwdef":6066,"ĠYSCALEYUV":6067,"DIRTY":6068,"SPARC":6069,"Ġiomemtype":6070,"DEPRECATION":6071,"BIOS":6072,"xalpha":6073,"Ġvia":6074,"ĠPL":6075,"ĠSR":6076,"ĉĉĉĉĉ":6077,"tling":6078,"MON":6079,"mean":6080,"Ġmovie":6081,"Ġinterlaced":6082,"Ġcorr":6083,"TRACK":6084,"clude":6085,"74":6086,"GEN":6087,"XB":6088,"vmppc":6089,"loss":6090,"Ġdp":6091,"Ġlpc":6092,"getlength":6093,"Ġinc":6094,"ĠNow":6095,"ĠSTO":6096,"bsp":6097,"Ġkvmppc":6098,"ĠEn":6099,"Ġee":6100,"parameter":6101,"MONO":6102,"force":6103,"granularity":6104,"*)&":6105,"Ġinternal":6106,"Ġpool":6107,"ĠACCESS":6108,"ĠIOMMU":6109,"osen":6110,"Ġimmedi":6111,"Ġscaling":6112,"ĠSTORE":6113,"halt":6114,"ption":6115,"enum":6116,"Ġperror":6117,"Ġqerror":6118,"ssse":6119,"domain":6120,"correct":6121,"primaries":6122,"vLumFilterSize":6123,"STRUCT":6124,"Job":6125,"fun":6126,"sasl":6127,"renc":6128,"loon":6129,"consumed":6130,"ĠMMX":6131,"olden":6132,"sphb":6133,"startcode":6134,"DIA":6135,"Ġmismatch":6136,"66":6137,"ATE":6138,"csock":6139,"dm":6140,"vbasedev":6141,"resize":6142,"retry":6143,"selector":6144,"Ġsmb":6145,"Ġmu":6146,"Ġdummy":6147,"ĠAVPROBE":6148,"Ġden":6149,"CPUPPCState":6150,"Ġoptarg":6151,"Ġcondition":6152,"ĠComp":6153,"Ġactually":6154,"SPC":6155,"bnd":6156,"Ġer":6157,"ĠRA":6158,"Ġssd":6159,"Ġcx":6160,"Ġbar":6161,"Ġpcc":6162,"exact":6163,"ings":6164,"ĠPXA":6165,"LOCAL":6166,"ipred":6167,"ĠCreate":6168,"forced":6169,"queues":6170,"rows":6171,"uffix":6172,"Ġopenpic":6173,"DEVS":6174,"EAGAIN":6175,"53":6176,"Len":6177,"kind":6178,"xm":6179,"atform":6180,"Ġtra":6181,"Ġbx":6182,"Ġvsid":6183,"=%\"":6184,"Options":6185,"SSED":6186,"Ġrequires":6187,"IMG":6188,"remote":6189,"DV":6190,"cq":6191,"farg":6192,"ĠER":6193,"secs":6194,"Ġside":6195,"Ġ1000000":6196,"otlb":6197,"ĠNot":6198,"readb":6199,"META":6200,"Ġxmm":6201,"ĠFP":6202,"MPV":6203,"ftp":6204,"Ġheaders":6205,"Ġparser":6206,"Ġabout":6207,"previous":6208,"writel":6209,"FLUSH":6210,"oppable":6211,"Ġhttp":6212,"GLOB":6213,"RLE":6214,"UMP":6215,"codsty":6216,"trk":6217,"Ġcases":6218,"Ġsizes":6219,"ĠSM":6220,"plate":6221,"writev":6222,"ĠchrDst":6223,"Ġclusters":6224,"Ġkeyframe":6225,"SIGNED":6226,"paddusb":6227,"Track":6228,"gotiate":6229,"QXL":6230,"big":6231,"ock":6232,"qstring":6233,"xE":6234,"Ġrelease":6235,"adapt":6236,"Ġinst":6237,"phase":6238,"lastIn":6239,"argc":6240,"ĠXEN":6241,"commit":6242,"Ġrtp":6243,"FUNCS":6244,"quire":6245,"ĠELF":6246,"Ġ2048":6247,"=&":6248,"GUID":6249,"OB":6250,"OFLAG":6251,"Ġsuper":6252,"interrupts":6253,"Ġvring":6254,"ĠQCRYPTO":6255,"DIRAC":6256,"PACK":6257,"Ġmaster":6258,"ldl":6259,"Ġcurl":6260,"properties":6261,"ROUND":6262,"extract":6263,"Ġdisp":6264,"Ġpcm":6265,"Ġallocation":6266,"HCIState":6267,"TRANS":6268,"ĠAcpi":6269,"Dev":6270,"FRO":6271,"luks":6272,"mi":6273,"xInc":6274,"resid":6275,"ulation":6276,"LEM":6277,"ARY":6278,"ĠEOF":6279,"ĠCPUID":6280,"ĠYUYV":6281,"Ġalignment":6282,"ĠTranslation":6283,"PARSE":6284,"Ġnecessary":6285,"XInc":6286,"mch":6287,"pf":6288,"colo":6289,"Ġdup":6290,"Ġlv":6291,"road":6292,"Ġ33":6293,"Ġeaddr":6294,"flip":6295,"lacing":6296,"SOCK":6297,"penalty":6298,"ĠOnly":6299,"ĠDCTELEM":6300,"emuxContext":6301,"EPC":6302,"IV":6303,"The":6304,"aded":6305,"bat":6306,"spi":6307,"war":6308,"ĠCOM":6309,"rain":6310,"Ġtrap":6311,"ĠUpdate":6312,"ĠGPIO":6313,"loppy":6314,"UART":6315,"men":6316,"uous":6317,"ora":6318,"lags":6319,"Ġrle":6320,"ĠPRE":6321,"NELS":6322,"FOUND":6323,"Ġbased":6324,"laces":6325,"ĠOPEN":6326,"KS":6327,"fis":6328,"gl":6329,"Ġtab":6330,"Ġvol":6331,"Ġgiven":6332,"Ġuhci":6333,"Ġhuff":6334,"COE":6335,"ĠFFSWAP":6336,"scaled":6337,"NEW":6338,"ĠWh":6339,"mmxext":6340,"windows":6341,"workaround":6342,"Ġcallback":6343,"Ġldq":6344,"sthrough":6345,"=\\\"":6346,"Cow":6347,"after":6348,"kbd":6349,"tight":6350,"ued":6351,"yper":6352,"instr":6353,"inux":6354,"Ġsx":6355,"ordered":6356,"sis":6357,"Ġmux":6358,"icc":6359,"drain":6360,"ĠCM":6361,"Ġasm":6362,"ĠUP":6363,"Ġhandled":6364,"chardev":6365,"TRACE":6366,"CHANNELS":6367,"Ġdefinition":6368,"Ġsimple":6369,"ĠAllocate":6370,"roadcast":6371,"010":6372,"Idx":6373,"mmap":6374,"niov":6375,"qbus":6376,"tu":6377,"Ġrep":6378,"always":6379,"alloon":6380,"anal":6381,"trail":6382,"assign":6383,"accept":6384,"ceed":6385,"uswb":6386,"SITION":6387,"Ġgener":6388,"bypass":6389,"FilterCode":6390,"ĠPCIBus":6391,"Ġbuffers":6392,"packuswb":6393,"Ext":6394,"passes":6395,"SEGV":6396,"Ġfinal":6397,"NBD":6398,"PLA":6399,"tuc":6400,"ĉĠĠĠĠĠ":6401,"Ġgnut":6402,"strlen":6403,"INC":6404,"))))":6405,"DEN":6406,"ĠPH":6407,"sconf":6408,"ALTIVEC":6409,"clut":6410,"reqs":6411,"565":6412,"IGH":6413,"macroblock":6414,"FAI":6415,"BACKWARD":6416,"Ġgnutls":6417,"AI":6418,"DSI":6419,"GN":6420,"HAL":6421,"_##":6422,"revision":6423,"Ġfps":6424,"ids":6425,"Ġqed":6426,"DED":6427,"asub":6428,"ĠĠĠĠĠĠĠĠĠĠĠĠĠĠĠĠĠĠĠĠĠĠĠĠĠĠĠĠĠĠĠĠĠĠĠĠĠĠĠĠĠĠĠĠĠĠĠĠĠĠĠĠĠĠ":6429,"termin":6430,"ĠByteIOContext":6431,"Ġmemmove":6432,"CPUS":6433,"ĠOT":6434,"BUILD":6435,"SRSC":6436,"111":6437,"ATTR":6438,"netdev":6439,"DISPO":6440,"Ġprogress":6441,"chapters":6442,"ĠBDRVQcowState":6443,"Ġebml":6444,"QIO":6445,"TER":6446,"Ġcred":6447,"Ġren":6448,"chrom":6449,"acity":6450,"Ġchild":6451,"errors":6452,"ĠCALL":6453,"SYST":6454,"Ġrequests":6455,"Bad":6456,"spect":6457,"Ġreplay":6458,"Ġpin":6459,"ĠAVIO":6460,"external":6461,"Ġlr":6462,"PROP":6463,"NATIVE":6464,"Ġlookup":6465,"sence":6466,"eeprom":6467,"Ġmsix":6468,"quiry":6469,"Ġhton":6470,"XState":6471,"ook":6472,"rng":6473,"sort":6474,"let":6475,"Ġ\"'":6476,"Ġxer":6477,"negotiate":6478,"below":6479,"SERIAL":6480,"EAX":6481,"ĠsrcSliceH":6482,"Jpeg":6483,"dpy":6484,"pat":6485,"pret":6486,"Ġpx":6487,"bugs":6488,"Ġhalf":6489,"pipe":6490,"ĠSK":6491,"evel":6492,"Ġvectors":6493,"frac":6494,"Ġcalled":6495,"STRING":6496,")((":6497,"Base":6498,"ny":6499,"ĠFILE":6500,"defaults":6501,"Ġrest":6502,"Ġmerge":6503,"Ġguess":6504,"ĠAudio":6505,"iocb":6506,"akes":6507,"ĠMod":6508,"foot":6509,"retval":6510,"Ġdisable":6511,"PRIV":6512,"Ġextension":6513,"Ġproperty":6514,"sampling":6515,"ĠInitialize":6516,"menu":6517,"Byte":6518,"RV":6519,"Ġtprintf":6520,"elen":6521,"ilk":6522,"Ġlsi":6523,"typename":6524,"mbaff":6525,"),\"":6526,"offsetof":6527,"Ġweight":6528,"YUVA":6529,"webs":6530,"vqs":6531,"ĠInter":6532,"realized":6533,"smk":6534,"psrad":6535,"energy":6536,"CLIENT":6537,"Ġvariable":6538,"Create":6539,"fpr":6540,"Ġfetch":6541,"Ġrestore":6542,"Ġ/**":6543,"strategy":6544,"Ġinsert":6545,"bufs":6546,"acc":6547,"COD":6548,"ĠTCP":6549,"shri":6550,"Ġeval":6551,"Ġ..":6552,"EDGE":6553,"ĠRET":6554,"TCGContext":6555,"overlay":6556,"Ġfeature":6557,"FORWARD":6558,"plicit":6559,"TEMPLATE":6560,"synth":6561,"8750":6562,"footer":6563,"Addr":6564,"DT":6565,"idsp":6566,"trl":6567,"extend":6568,"Ġ::":6569,"PILE":6570,"DISAS":6571,"uda":6572,"formatConvBuffer":6573,"ĠLIST":6574,"ibility":6575,"Ġhandling":6576,"attrs":6577,"rounding":6578,"Ġboundary":6579,"Descriptor":6580,"300":6581,"Element":6582,"MET":6583,"OVER":6584,"SCORE":6585,"hole":6586,"Ġedit":6587,"Ġbnd":6588,"adv":6589,"ĠAll":6590,"ates":6591,"droppable":6592,"mbmode":6593,"SIDE":6594,"planar":6595,"Ġ'/":6596,"tempor":6597,"sbd":6598,"Ġsdl":6599,"LumSrcY":6600,"reshold":6601,"breakpoint":6602,"Ġsuch":6603,"Ġtemporary":6604,"FAILED":6605,"ĠSKIP":6606,"EFAULT":6607,"OST":6608,"cg":6609,"arter":6610,"ffered":6611,"lash":6612,"Ġwarning":6613,"Ġlit":6614,"Ġvery":6615,"ĠROM":6616,"biweight":6617,"ĠDisasContext":6618,"trafo":6619,"ĠUPDATE":6620,"Dec":6621,"FsContext":6622,"pg":6623,"qobj":6624,"Ġty":6625,"alfp":6626,"Ġ\"+":6627,"REAL":6628,"pul":6629,"ĠĠĠĠĠĠĠĠĠĠĠĠčĊ":6630,"ĠMFX":6631,"refetch":6632,"ĠBad":6633,"Ġxx":6634,"ĠCle":6635,"phdr":6636,"pktl":6637,"ĠdstY":6638,"ome":6639,"Ġleg":6640,"uality":6641,"MSG":6642,"CHANGE":6643,"Option":6644,"specific":6645,"ymist":6646,"ClientState":6647,"strlcat":6648,"strlcpy":6649,"DEMUXER":6650,"ilkymist":6651,";\"":6652,"Host":6653,"]<<":6654,"pin":6655,"pde":6656,"Ġ*_":6657,"utex":6658,"priority":6659,"DESC":6660,"andle":6661,"putil":6662,"ĠVnc":6663,"CKER":6664,"requested":6665,"SUPP":6666,"cycle":6667,"ĠPGM":6668,"+(":6669,"DM":6670,"au":6671,"px":6672,"smp":6673,"tco":6674,"Ġclass":6675,"Ġ-(":6676,"framesize":6677,"ĠIVI":6678,"Ġ',":6679,"Ġ**)&":6680,"Ġfilm":6681,"BDMA":6682,"Ġsomething":6683,"GLOBAL":6684,"HIGH":6685,"Qu":6686,"nan":6687,"vst":6688,"Ġsf":6689,"integer":6690,"Ġbh":6691,"Ġbin":6692,"Ġ\".":6693,"ĠAdd":6694,"trap":6695,"mach":6696,"Ġoi":6697,"Ġwi":6698,"Ġrcc":6699,"ross":6700,"ĠBAT":6701,"Ġsen":6702,"ĠFLV":6703,"PAU":6704,"irqchip":6705,"product":6706,"finish":6707,"ifiers":6708,"Ġ(%%\"":6709,"monitor":6710,"UPDATE":6711,"ĠzSig":6712,"LENGTH":6713,"words":6714,"template":6715,"Ġsprite":6716,":::\"":6717,"hpet":6718,"Decoder":6719,"40000000":6720,"]\\":6721,"eob":6722,"pv":6723,"oring":6724,"Ġam":6725,"Ġbm":6726,"Ġmquant":6727,"Ġhotplug":6728,"route":6729,"ĠSocketAddress":6730,"ĠTPM":6731,"Ġconstant":6732,"olve":6733,"Ġ((*":6734,"Ġunused":6735,"allocation":6736,"Ġfast":6737,"lcd":6738,"PTH":6739,"finished":6740,"Ġinterface":6741,"scalar":6742,"ĠSOCKET":6743,"ensation":6744,"inserted":6745,"43":6746,"Virt":6747,"Ġima":6748,"Ġqmul":6749,"ĠNB":6750,"geometry":6751,"Ġstrcpy":6752,"vme":6753,"lsf":6754,"Ġanything":6755,"ĠSHIFT":6756,"Ġindicate":6757,"ĠNOTE":6758,"bilinear":6759,"CODING":6760,"ASH":6761,"PXA":6762,"RS":6763,"VFP":6764,"fir":6765,"gpu":6766,"norm":6767,"xpos":6768,"ately":6769,"Ġtake":6770,"Ġfg":6771,"translate":6772,"Ġwin":6773,"ĠPORT":6774,"ĠSS":6775,"ĠSkip":6776,"ENCRYPT":6777,"based":6778,"CHROMA":6779,"quarter":6780,"interlace":6781,"Ġargument":6782,"SERVER":6783,"cplx":6784,"guidcmp":6785,"MULTI":6786,"ĠchrDstW":6787,"hift":6788,"saved":6789,"tce":6790,"ĠCOPY":6791,"anity":6792,"Ġqc":6793,"mmand":6794,"ĠTT":6795,"apply":6796,"Ġjump":6797,"ĠFa":6798,"Ġpcms":6799,"hwctx":6800,"mono":6801,"MEDIUM":6802,"divx":6803,"vChrFilterSize":6804,"Ġprobably":6805,"Ġensure":6806,"Ġrender":6807,"Ġlegacy":6808,"ISA":6809,"Image":6810,"[((":6811,"dnow":6812,"impl":6813,"lim":6814,"vop":6815,"inval":6816,"lea":6817,"leak":6818,"Ġrect":6819,"uninit":6820,"Ġgtk":6821,"Ġavr":6822,"Ġffserver":6823,"ĠsrcY":6824,"ĠVisitor":6825,"ĠVHOST":6826,"ĠData":6827,"ĠFrame":6828,"subpacket":6829,"127":6830,"cmphex":6831,"ientation":6832,"ENTER":6833,"Parameters":6834,"written":6835,"replace":6836,"mediate":6837,"Ġvmsvga":6838,")]);":6839,"lf":6840,"inode":6841,"sep":6842,"Ġpde":6843,"Ġvui":6844,"Ġqcrypto":6845,"Ġrtl":6846,"RENAME":6847,"gettime":6848,"ORI":6849,"LODE":6850,"sigset":6851,"fdct":6852,"fdctrl":6853,"moved":6854,"UNSPECIFI":6855,"submit":6856,"pics":6857,"Ġlowpass":6858,"ToY":6859,"QUANT":6860,"EXPLODE":6861,"ĠDisplay":6862,"interleaved":6863,"geotags":6864,"SYSTEM":6865,"UNSPECIFIED":6866,"BC":6867,"CLE":6868,"PL":6869,"QCOW":6870,"WEB":6871,"sdram":6872,"Ġimp":6873,"Ġhdev":6874,"Ġhorizontal":6875,"Ġlba":6876,"psw":6877,"ĠVMX":6878,"Ġ:\"":6879,"before":6880,"Ġevents":6881,"Parameter":6882,"Ġmacroblock":6883,"Ġbranch":6884,"Ġbetter":6885,"Ġenergy":6886,"RW":6887,"bmds":6888,"restrict":6889,"Ġ*((":6890,"oroutine":6891,"arly":6892,"Ġmix":6893,"Ġmessage":6894,"bulk":6895,"Ġxy":6896,"curl":6897,"vmc":6898,"vari":6899,"missing":6900,"InputVisitor":6901,">\\":6902,"ATA":6903,"FC":6904,"LET":6905,"lush":6906,"qtd":6907,"Ġauto":6908,"setting":6909,"Ġluks":6910,"ĠPicture":6911,"Ġstq":6912,"pbdev":6913,"Ġbeing":6914,"ĠHT":6915,"__)":6916,"Too":6917,"Ġmsrs":6918,"IZED":6919,"Ġgranularity":6920,"AVFilterLink":6921,"THREADS":6922,"style":6923,"Ġfollowing":6924,"SENT":6925,"detach":6926,"Ġtick":6927,"aris":6928,"Ġhi":6929,"assigned":6930,"buflen":6931,"ĠSUB":6932,"ĠBus":6933,"Ġexact":6934,"REGBP":6935,"ĠXC":6936,"configuration":6937,"sws":6938,"Ġsubframe":6939,"ĠInvalid":6940,"ĠThere":6941,"izing":6942,"crease":6943,"SRSConf":6944,"BS":6945,"Cur":6946,"PX":6947,"lic":6948,"denom":6949,"Ġsg":6950,"Ġcrs":6951,"ĠaSig":6952,"ito":6953,"escape":6954,"bitmask":6955,"ĠMemory":6956,"IOMMU":6957,"readl":6958,"FRAMES":6959,"ĠEXT":6960,"Ġperm":6961,"nvram":6962,"Ġproper":6963,"Ġcompatibility":6964,"]\"=&":6965,"ASS":6966,"cf":6967,"dig":6968,"horizontal":6969,"wc":6970,"ĠUN":6971,"Ġgl":6972,"Ġgsi":6973,"ĠPut":6974,"ALETTE":6975,"shutdown":6976,"Ġsepar":6977,"Ġassign":6978,"ĠEINTR":6979,"indx":6980,"sglist":6981,"TCGv":6982,"Ġmulti":6983,"Ġmean":6984,"history":6985,"schedule":6986,"Space":6987,"90":6988,"970":6989,"AGE":6990,"QemuOpts":6991,"dxy":6992,"glyph":6993,"ied":6994,"|=":6995,"Ġlayer":6996,"Ġfooter":6997,"ĠAVC":6998,"Ġhist":6999,"Ġrice":7000,"lowres":7001,"chrToYV":7002,"Ġcompression":7003,"265":7004,"Ġbandno":7005,"ChrSrcY":7006,"Ġmmco":7007,"BACKING":7008,"192":7009,"Arg":7010,"Ġcalculate":7011,"ĠsrcSliceY":7012,"Ġhpet":7013,"-%":7014,"DD":7015,"ILL":7016,"Used":7017,"Write":7018,"but":7019,"dcl":7020,"font":7021,"fskip":7022,"hc":7023,"pan":7024,"pfn":7025,"wi":7026,"rell":7027,"atroska":7028,"Ġtv":7029,"Ġretry":7030,"unquantize":7031,"uments":7032,"shl":7033,"Ġselector":7034,"bound":7035,"ĠLinux":7036,"SRR":7037,"ENOENT":7038,"brid":7039,"clean":7040,"ĠDECODE":7041,"AVFilterContext":7042,"Ġcontains":7043,"sistent":7044,"ĠVHDX":7045,"METADATA":7046,"rellis":7047,"95":7048,"BPS":7049,"IA":7050,"WMV":7051,"[],":7052,"eac":7053,"false":7054,"ĠIT":7055,"siv":7056,"Ġinterrupts":7057,"heep":7058,"Ġmul":7059,"Ġmpc":7060,"unless":7061,"sets":7062,"Ġdyn":7063,"ulse":7064,"LOOP":7065,"olute":7066,"LABLE":7067,"Ġunimplemented":7068,"Ġalp":7069,"ĠON":7070,"flate":7071,"Ġaccording":7072,"VATE":7073,"ĠextractFloat":7074,"Ġsuccess":7075,"Ġstuffing":7076,"completion":7077,"creds":7078,"Ġvertical":7079,"AILABLE":7080,"601":7081,"Socket":7082,"TMP":7083,"VQ":7084,"ful":7085,"language":7086,"vfree":7087,"Ġreject":7088,"Ġ\"\");":7089,"Ġobt":7090,"ĠPM":7091,"ĠPREF":7092,"ĠSysBusDevice":7093,"spice":7094,"LATION":7095,"LEG":7096,"ADST":7097,"Ġwhether":7098,"pau":7099,"ĠGuest":7100,"ROW":7101,"optarg":7102,"waiting":7103,"Ġprocessing":7104,"within":7105,"descriptors":7106,"Ġdirectly":7107,"PROTOCOL":7108,"Result":7109,"8544":7110,"VncState":7111,"386":7112,"APIC":7113,"Check":7114,"Max":7115,"reordered":7116,"incts":7117,"Ġcss":7118,"Ġprom":7119,"Ġmost":7120,"Ġow":7121,"Ġ29":7122,"ĠPTE":7123,"ĠĠĠĠĠĠĠĠĠĠĠĠĠĠĠĠĠĠĠĠĠĠĠĠĠĠĠĠĠĠĠĠĠĠĠĠĠĠĠĠĠĠĠĠĠĠĠĠĠĠĠĠĠ":7124,"ĠSECT":7125,"logic":7126,"ivi":7127,"IDATE":7128,"ĠBO":7129,"Ġunpack":7130,"Ġexport":7131,"syntax":7132,"pose":7133,"Ġparsing":7134,"Ġtimes":7135,"xfm":7136,"nother":7137,"comment":7138,"FRAG":7139,"DSPContext":7140,"Ġconfiguration":7141,"nvic":7142,"ĠIPMI":7143,"instance":7144,"Completion":7145,"Be":7146,"DemuxContext":7147,"MIG":7148,"Warning":7149,"]++;":7150,"ogg":7151,"tas":7152,"vbuf":7153,"Ġla":7154,"Ġ=>":7155,"Ġaction":7156,"any":7157,"avcodec":7158,"ĠNe":7159,"blockalign":7160,"rax":7161,"very":7162,"modes":7163,"DISK":7164,"Ġest":7165,"Ġdolog":7166,"substr":7167,"arger":7168,"Ġarea":7169,"NAPS":7170,"Ġrunning":7171,"groups":7172,"clusive":7173,"Ġpassword":7174,"uyv":7175,"Open":7176,"Property":7177,"Voice":7178,"iTask":7179,"lsock":7180,"Ġ@":7181,"ĠLE":7182,"itxfm":7183,"Ġremain":7184,"ffect":7185,"strto":7186,"roblocks":7187,"Ġ(!*":7188,"spatial":7189,"SECOND":7190,"SEEK":7191,"layouts":7192,"protect":7193,"NY":7194,"^^":7195,"bid":7196,"nics":7197,"oose":7198,"pfd":7199,"snd":7200,"ĠOR":7201,"Ġtree":7202,"Ġfrequency":7203,"comb":7204,"uture":7205,"Ġvisitor":7206,"Ġdither":7207,"ĠStop":7208,"ENSA":7209,"ĠDon":7210,"shared":7211,"Ġseem":7212,"Ġwere":7213,"CONTEXT":7214,"fsr":7215,"ĠTCGReg":7216,"package":7217,"HOT":7218,"LUG":7219,"corrup":7220,"Ġimplementation":7221,"ĠPRINT":7222,"FREQ":7223,"PMODE":7224,"RN":7225,"Scal":7226,"Section":7227,"SENSE":7228,"Timer":7229,"slave":7230,"Ġ27":7231,"readonly":7232,"refresh":7233,"Ġthreshold":7234,"ĠHV":7235,"NOS":7236,"Ġscreen":7237,"csr":7238,"exponent":7239,"Ġusbredir":7240,"PPY":7241,"Align":7242,"ĠSOCK":7243,"Ġoccur":7244,"HANDLE":7245,"Ġeeprom":7246,"DISPOSITION":7247,"LINK":7248,"Level":7249,"OS":7250,"have":7251,"licate":7252,"pit":7253,"amf":7254,"elbg":7255,"arts":7256,"Ġvmx":7257,"imate":7258,"ĠSo":7259,"Ġconsole":7260,"override":7261,"started":7262,"Ġyou":7263,"0001":7264,"quad":7265,"ONIT":7266,"<<(":7267,"Ġvmcb":7268,"ĠAVFilterContext":7269,"ĠStart":7270,"IALIZED":7271,"Ġsupports":7272,"iskState":7273,"FRONT":7274,"ĠPREFETCH":7275,"501":7276,"SEND":7277,"hChr":7278,"lm":7279,"mer":7280,"ogram":7281,"pvr":7282,"sdev":7283,"vtd":7284,"Ġanother":7285,"Ġtail":7286,"Ġft":7287,"Ġredu":7288,"Ġresidual":7289,"Ġlambda":7290,"Ġlarger":7291,"ĠPS":7292,"Ġstored":7293,"resses":7294,"resource":7295,"srcSlice":7296,"parsing":7297,"ARMV":7298,"ĠHELPER":7299,"USR":7300,"preter":7301,"ANCE":7302,"MISS":7303,"Ġinterle":7304,"RDMA":7305,"Ġdspfunc":7306,"ĠZPCI":7307,"ĠCOMPILE":7308,"cas":7309,"element":7310,"qint":7311,"rack":7312,"inject":7313,"ond":7314,"ctxt":7315,"Ġuvalpha":7316,"Ġrad":7317,"Ġchanges":7318,"ĠMIG":7319,"ĠFLI":7320,"cbpcy":7321,"OPS":7322,"sym":7323,"ĠURL":7324,"Ġdevfn":7325,"PCIBus":7326,"rentry":7327,"405":7328,"Ġchunks":7329,"COMPAT":7330,"Ġreally":7331,"Ġwrites":7332,"SOFTMMU":7333,"ĠAUD":7334,"elems":7335,"Ġsmbios":7336,"ĠVMXNET":7337,"heepdog":7338,"016":7339,"CLO":7340,"DSP":7341,"DITHER":7342,"KERNEL":7343,"VPE":7344,"YNOS":7345,"dmv":7346,"sscanf":7347,"Ġ(++":7348,"cker":7349,"icient":7350,"iler":7351,"atapi":7352,"Ġwc":7353,"Ġlun":7354,"thumb":7355,"COPI":7356,"ĠSP":7357,"ALSE":7358,"queued":7359,"Ġ((!":7360,"addl":7361,"Ġnote":7362,"UNI":7363,"SCS":7364,"Ġpicref":7365,"Ġsubstr":7366,"Ġdestination":7367,"ĠCPSR":7368,"TRAN":7369,"punpckhb":7370,"Ġesc":7371,"partitions":7372,"volume":7373,"Ġsense":7374,"COPIED":7375,"punpckhbw":7376,"92":7377,"SQ":7378,"VX":7379,"bind":7380,"finit":7381,"gor":7382,"golden":7383,"Ġeth":7384,"dependent":7385,"Ġsphb":7386,"Ġsdram":7387,"Ġcert":7388,"simd":7389,"Ġdb":7390,"trc":7391,"aving":7392,"bitbuf":7393,"ĠMT":7394,"Ġcolo":7395,"Ġcodsty":7396,"LAMB":7397,"ADER":7398,"Ġexpect":7399,"movz":7400,"ĠHAS":7401,"ferenc":7402,"cols":7403,"Ġcompare":7404,"Ġclut":7405,"REATE":7406,"caps":7407,"tpel":7408,"Ġsrr":7409,"xFFFFFFFF":7410,"ĠvChrFilterSize":7411,"atomic":7412,"COEFF":7413,"ĠHTTP":7414,"LAMBDA":7415,"BL":7416,"MIC":7417,"ahead":7418,"dquant":7419,"day":7420,"gd":7421,"zrle":7422,"Ġchapter":7423,"ights":7424,"ustom":7425,"agement":7426,"ĠFOP":7427,"Ġ~((":7428,"Ġbook":7429,"Ġskipped":7430,"byteu":7431,"Cond":7432,"ĠSEI":7433,"SERV":7434,"cases":7435,"sysctl":7436,"distance":7437,"ĠCHUNK":7438,"ttmb":7439,"ĠMMCO":7440,"NAPSHOT":7441,"011":7442,"3000":7443,"DXVA":7444,"HARD":7445,"YY":7446,"hrd":7447,"qt":7448,"vms":7449,"Ġet":7450,"storage":7451,"onito":7452,"Ġpush":7453,"ants":7454,"Ġdxy":7455,"coder":7456,"ioh":7457,"ĠTC":7458,"ĠWIN":7459,"lengths":7460,"ANY":7461,"segv":7462,"(%[":7463,"ĠchrSrc":7464,"Ġescape":7465,"ĠVirtIODevice":7466,"ĠVCARD":7467,"throttling":7468,"reslevelno":7469,"Ġfourxm":7470,"VDPAU":7471,"ĠShould":7472,"UserDef":7473,"visor":7474,"ĠTranslationBlock":7475,"ByteContext":7476,"BLA":7477,"Mem":7478,"dmfc":7479,"fpregs":7480,"hLum":7481,"pfl":7482,"vo":7483,"reater":7484,"cty":7485,"Ġrsp":7486,"Ġls":7487,"ĠĠĠĠĠĠĠĠĠĠĠĠĠĠĠĠĠĠĠĠĠĠĠĠĠĠĠĠĠĠĠĠĠĠĠĠĠĠĠĠĠĠĠĠĠĠĠĠĠĠĠĠĠĠĠ":7488,"Ġconstraint":7489,"ands":7490,"psraw":7491,"ĠCU":7492,"Ġexynos":7493,"Ġswit":7494,"box":7495,"BlockJob":7496,"Ġemms":7497,"Array":7498,"ĠMOVNTQ":7499,"1394":7500,"DNOW":7501,"LER":7502,"halfp":7503,"nsec":7504,"Ġser":7505,"Ġaac":7506,"Ġpy":7507,"Ġuc":7508,"istics":7509,"ĠMpeg":7510,"sigframe":7511,"Ġunaligned":7512,"SEARCH":7513,"AVPicture":7514,"EXACT":7515,"interp":7516,"YUVJ":7517,"StreamContext":7518,"tpm":7519,"arest":7520,"decref":7521,"egacy":7522,"Ġtransform":7523,"precincts":7524,"segmentation":7525,"nofid":7526,"Ġpacked":7527,"Ġlinux":7528,"Ġdistance":7529,"Ġpassed":7530,"Ġeverything":7531,"'ve":7532,"83":7533,"Offset":7534,"PIN":7535,"PPS":7536,"Tag":7537,"gregs":7538,"irect":7539,"jor":7540,"tfs":7541,"strerror":7542,"Ġcin":7543,"adpcm":7544,"peek":7545,"avx":7546,"imary":7547,"Ġ50":7548,"ĠLPC":7549,"Ġparallel":7550,"ICS":7551,"Ġless":7552,"packssd":7553,"SOCKET":7554,"Ġident":7555,"TPLUG":7556,"ĠNVME":7557,"truncate":7558,"temporal":7559,"ĠClear":7560,"packssdw":7561,"37":7562,"QH":7563,"lsp":7564,"ltp":7565,"npc":7566,"vl":7567,"ĉĠĠ":7568,"Ġtss":7569,"Ġrem":7570,"idstr":7571,"Ġ\":":7572,"Ġmpic":7573,"icro":7574,"icator":7575,"abi":7576,"ĉĉĉĠĠĠ":7577,"ĠBU":7578,"CPUARMState":7579,"parallel":7580,"Ġexcp":7581,"hostname":7582,"Ġ127":7583,"PRESENT":7584,"Ġfiltered":7585,"rgba":7586,"mount":7587,"nvenc":7588,"cyls":7589,"ĠMPV":7590,"virtqueue":7591,"ĠQIOChannel":7592,"Serial":7593,"ĠOutputStream":7594,"Ġmuch":7595,"CLK":7596,"NUT":7597,"qa":7598,"sof":7599,"vio":7600,"reopen":7601,"reverse":7602,"alarm":7603,"Ġmjpeg":7604,"utf":7605,"uting":7606,"Ġvmdk":7607,"ĠAP":7608,"001":7609,"Ġry":7610,"Ġlj":7611,"Ġinv":7612,"DEPTH":7613,"this":7614,"irk":7615,"Ġcomb":7616,"STRI":7617,"Ġxattr":7618,"OPL":7619,"ĠGEM":7620,"]==":7621,"Ġready":7622,"liance":7623,"Ġwriting":7624,"Ġmodified":7625,"Ġoriginal":7626,"frags":7627,"Ġcredp":7628,"Mis":7629,"MJPEG":7630,"SPS":7631,"WTE":7632,"Ġapp":7633,"Ġtask":7634,"Ġfifo":7635,"Ġreceive":7636,"Ġreferenc":7637,"Ġptimer":7638,"idle":7639,"Ġmdct":7640,"Ġvhd":7641,"exc":7642,"Ġdt":7643,"Ġhack":7644,"locked":7645,"asy":7646,"acquire":7647,"ĠPFX":7648,"ĠsrcH":7649,"nector":7650,"ĠCopy":7651,"Ġstrnc":7652,"RGBA":7653,"Ġboard":7654,"CAN":7655,"Ġchecks":7656,":%\"":7657,"READER":7658,"Ġsubstream":7659,"cay":7660,"egasas":7661,"DUMP":7662,"ĠHEADER":7663,"Server":7664,"PLANE":7665,"BeUsed":7666,"TRANSP":7667,"WTELEM":7668,"bmap":7669,"fseek":7670,"napshot":7671,"xer":7672,"ĠTAILQ":7673,"Ġbw":7674,"Ġpow":7675,"Ġpatch":7676,"elist":7677,"eturn":7678,"Ġgive":7679,"ĠARG":7680,"ĠAml":7681,"Ġok":7682,"RENT":7683,"ORTS":7684,"tyle":7685,"Ġstarts":7686,"FFABS":7687,"osition":7688,"Ġadv":7689,"ĠRS":7690,"AVAILABLE":7691,"OPCODE":7692,"feof":7693,"colum":7694,"vlcs":7695,"Ġpcie":7696,"Ġextended":7697,"URN":7698,"rings":7699,"sfb":7700,"ĠSCALE":7701,"Ġbadframe":7702,"Ġvirtqueue":7703,"NONBLOCK":7704,"PALETTE":7705,"huffman":7706,"Ġnvdimm":7707,"Ġpeer":7708,"FW":7709,"IE":7710,"Memory":7711,"ZRLE":7712,"bx":7713,"bet":7714,"mware":7715,"message":7716,"ssion":7717,"soft":7718,"Ġpit":7719,"alc":7720,"Ġ\"=":7721,"ĠAddress":7722,"setcond":7723,"blockdev":7724,"Ġsent":7725,"Ġsession":7726,"Ġexc":7727,"verify":7728,"compr":7729,"dca":7730,"fsString":7731,"keyframes":7732,"minor":7733,"TIS":7734,"disabled":7735,"Ġdisas":7736,"Ġhwdef":7737,"TRAP":7738,"ically":7739,"fatal":7740,"interleave":7741,"chronize":7742,"**)":7743,"768":7744,"DY":7745,"Node":7746,"OV":7747,"SOR":7748,"VSubSample":7749,"oargs":7750,"qlist":7751,"rma":7752,"tos":7753,"Ġlace":7754,"Ġsoft":7755,"Ġslavio":7756,"itu":7757,"urces":7758,"anule":7759,"ĠAL":7760,"iguous":7761,"ĠMachine":7762,"ĠTS":7763,"Ġ80":7764,"Ġxc":7765,"splat":7766,"slt":7767,"Ġelement":7768,"snap":7769,"ccfg":7770,"lier":7771,"partial":7772,"Ġloss":7773,"breakpoints":7774,"olean":7775,"::\"":7776,"codebooks":7777,"ĠAVFilterBufferRef":7778,"plication":7779,"attributes":7780,"ĠSAMPLE":7781,"analy":7782,"Scaler":7783,"ONITO":7784,"Ġswitched":7785,"AA":7786,"AREG":7787,"ONE":7788,"PORTS":7789,"Style":7790,"istr":7791,"same":7792,"vdi":7793,"vbv":7794,"Ġimpl":7795,"intp":7796,"ĠaExp":7797,"Ġtlen":7798,"anep":7799,"adapter":7800,"Ġavail":7801,"Ġdamaged":7802,"Ġrps":7803,"Ġincrement":7804,"ORTED":7805,"endpoint":7806,"addrlen":7807,"ĉĉĠ":7808,"ĠBE":7809,"msav":7810,"Ġfaster":7811,"compliance":7812,"SCSID":7813,"samplesref":7814,"RTP":7815,"ONT":7816,"Ġblkdev":7817,"capacity":7818,")*(":7819,"presentation":7820,"Ġrounding":7821,"migrate":7822,"Ġattrib":7823,"Ġcorrup":7824,"Ġhtonl":7825,"raxfs":7826,"GBR":7827,"Ne":7828,"nop":7829,"rp":7830,"slow":7831,"wptr":7832,"Ġslow":7833,"Ġcop":7834,"erator":7835,"eneric":7836,"leted":7837,"Ġtags":7838,"sired":7839,"Ġ&(":7840,"Ġmbs":7841,"icp":7842,"Ġvop":7843,"other":7844,"ĠhChr":7845,"mms":7846,"mmon":7847,"imdct":7848,"ĠCD":7849,"uintp":7850,"beData":7851,"ĠCPUPPCState":7852,"flt":7853,"Ġsnow":7854,"Ġpbdev":7855,"ĠBLOCKDEV":7856,"ECX":7857,"Ġexecute":7858,"Ġfinished":7859,"Ġattrs":7860,"PROGRESS":7861,"7816":7862,"SUPPORTED":7863,"APP":7864,"TCH":7865,"UMB":7866,"WIND":7867,"cmsg":7868,"clas":7869,"fetch":7870,"warning":7871,"ĠAVRational":7872,"strips":7873,"MAIN":7874,"Ġ44":7875,"IDLE":7876,"curity":7877,"crf":7878,"Ġpriority":7879,"BITEXACT":7880,"READY":7881,"Ġformats":7882,"MMXEXT":7883,"seekable":7884,"Ġconfigure":7885,"GPF":7886,"Local":7887,"Ġreslevelno":7888,"Ġticks":7889,"CRE":7890,"CREATE":7891,"IB":7892,"LZ":7893,"TRI":7894,"aux":7895,"da":7896,"tcr":7897,"rematrix":7898,"Ġsqrt":7899,"Ġpop":7900,"alternate":7901,"Ġmseq":7902,"unplug":7903,"Ġinclude":7904,"Ġchain":7905,"posit":7906,"Ġstartcode":7907,"EXTRA":7908,"Ġcorresp":7909,"):\"":7910,"description":7911,"Ġlikely":7912,"Ġbounds":7913,"HEVClc":7914,"ĠFLAG":7915,"WAIT":7916,"Performance":7917,"DecContext":7918,"20000":7919,"82":7920,"AME":7921,"Legacy":7922,"PN":7923,"VENCRYPT":7924,"bap":7925,"gob":7926,"lld":7927,"wfourcc":7928,"xD":7929,"Ġent":7930,"Ġservice":7931,"decay":7932,"erial":7933,"Ġframerate":7934,"ĠAioContext":7935,"otrack":7936,"))));":7937,"(&(":7938,"Ġhyper":7939,"Ġqint":7940,"thr":7941,"bufsize":7942,"blocking":7943,"ĠCS":7944,"ĠCoroutine":7945,"FIFO":7946,"Ġthrot":7947,"Ġtrigger":7948,"NOTS":7949,"MPU":7950,"ĠLD":7951,"fsF":7952,"tbr":7953,"keycode":7954,"CATED":7955,"disas":7956,"MIX":7957,"ĠAVPixelFormat":7958,"continue":7959,"ĠMPU":7960,"NORMAL":7961,"CompletionFunc":7962,"09":7963,"RM":7964,"Snapshot":7965,"VOF":7966,"]*(":7967,"bprm":7968,"fit":7969,"nor":7970,"qs":7971,"Ġed":7972,"Ġloc":7973,"decr":7974,"Ġsscanf":7975,"Ġcand":7976,"Ġau":7977,"Ġfreq":7978,"Ġfopen":7979,"Ġpmv":7980,"Ġplay":7981,"adj":7982,"edded":7983,"aver":7984,"connection":7985,"ĠMFI":7986,"shape":7987,"Ġ\\\\":7988,"Ġaspect":7989,"Ġnotifier":7990,"ĠHW":7991,"Ġtypes":7992,"ĠUSE":7993,"Ġadditional":7994,"acter":7995,"ppnt":7996,"Ġdirectory":7997,"Ġflv":7998,"Ġlower":7999,"ificant":8000,"Ġpartial":8001,"tensa":8002,"CharDriverState":8003,"Ġimages":8004,"Cache":8005,"LDEN":8006,"OMAP":8007,"hl":8008,"Ġci":8009,"Ġcu":8010,"Ġfclose":8011,"Ġpflash":8012,"idr":8013,"Ġ\"{":8014,"Ġvid":8015,"ĠAS":8016,"Ġqvirtio":8017,"RESP":8018,"ĠSLB":8019,"psd":8020,"ĠCalc":8021,"tobgr":8022,"ITION":8023,"AVS":8024,"ĠED":8025,"mdma":8026,"InSrc":8027,"validate":8028,"interface":8029,"ĠXVID":8030,"MMS":8031,"ĠQEMUFile":8032,"ĠReset":8033,"ALLO":8034,"FAIL":8035,"DstInSrc":8036,"passthrough":8037,"GOLDEN":8038,"watchpoint":8039,"Ġkeys":8040,"fsFid":8041,"ISE":8042,"SPI":8043,"UBITS":8044,"lz":8045,"tns":8046,"ĠLOCAL":8047,"dead":8048,"Ġcard":8049,"orld":8050,"Ġfuture":8051,"Ġpaddr":8052,"Ġnorm":8053,"ERIALIZED":8054,"Ġwp":8055,"ifname":8056,"Ġchoose":8057,"Ġffurl":8058,"Ġadjust":8059,"Ġjpeg":8060,"signature":8061,"AVGB":8062,"DROM":8063,"flat":8064,"Ġprepare":8065,"condjmp":8066,"ICC":8067,"render":8068,"ĠREX":8069,"HOTPLUG":8070,"punpckldq":8071,"Ġbootsector":8072,"Ġmcf":8073,"9999":8074,"Ġfinish":8075,"WINDOW":8076,"NOTSERIALIZED":8077,"CENTER":8078,"Flags":8079,"Po":8080,"TCP":8081,"UMA":8082,"hcall":8083,"jump":8084,"sx":8085,"vsid":8086,"Ġaurb":8087,"Ġbprm":8088,"Ġbmds":8089,"icy":8090,"ĠAVI":8091,"ilvr":8092,"rce":8093,"Ġ!\\":8094,"imation":8095,"ential":8096,"ĠBINK":8097,"Ġcpus":8098,"Ġadded":8099,"ĠRLE":8100,"Ġonce":8101,"bandwidth":8102,"Ġfilters":8103,"CRC":8104,"fpscr":8105,"Ġscaled":8106,"INTERNAL":8107,"Ġthreads":8108,"Ġgood":8109,"Ġinitialized":8110,"VirtIODevice":8111,"ĠNEW":8112,"ĠvLumFilterSize":8113,"FLTP":8114,"ĠPowerPCCPU":8115,"keysym":8116,"pkg":8117,"WEBSOCK":8118,"47":8119,"AML":8120,"Fmt":8121,"Flag":8122,"SPAPR":8123,"Tx":8124,"bprint":8125,"hdev":8126,"nsector":8127,"xch":8128,"ĠCO":8129,"demux":8130,"eno":8131,"Ġreached":8132,"sider":8133,"unregister":8134,"Ġquality":8135,"Ġlat":8136,"Ġldu":8137,"RESSED":8138,"DECODE":8139,"linear":8140,"timing":8141,"ĠDVB":8142,"ĠTCGArg":8143,"mcast":8144,"PRIVATE":8145,"Parser":8146,"Ġtrying":8147,"Ġmapped":8148,"Ġnalsize":8149,"Ġmodify":8150,"Ġcyls":8151,"ĠchromStride":8152,"Ġ65536":8153,"Hz":8154,"PREA":8155,"PFLASH":8156,"Virtio":8157,"ZY":8158,"paddr":8159,"qid":8160,"rA":8161,"sbits":8162,"tw":8163,"ytes":8164,"incoming":8165,"decomp":8166,"Ġimx":8167,"Ġcg":8168,"Ġbmap":8169,"Ġnl":8170,"Ġnone":8171,"ĠSLICE":8172,"ĠTH":8173,"uspend":8174,"sigsegv":8175,"Ġklv":8176,"MTRR":8177,"Ġshared":8178,"disposition":8179,"ĠINSN":8180,"rbd":8181,"ĠDEFAULT":8182,"ificate":8183,"cannot":8184,"quired":8185,"Ġmanagement":8186,"halted":8187,"Ġvhdx":8188,"!!":8189,"APE":8190,"Dir":8191,"LNK":8192,"Psy":8193,"Skip":8194,"hid":8195,"qov":8196,"sect":8197,"Ġtt":8198,"amelen":8199,"copi":8200,"Ġpoc":8201,"Ġ\"[":8202,"Ġnuma":8203,"devname":8204,"REC":8205,"ĠPNG":8206,"inited":8207,"ĠBu":8208,"ĠICH":8209,"Ġunlink":8210,"platform":8211,"ĠOther":8212,"EXC":8213,"preset":8214,"ĠUHCI":8215,"Ġdca":8216,"Ġpredict":8217,"chars":8218,"cntl":8219,"overflow":8220,"SAMPLES":8221,"Ġexponent":8222,"COMPRESSED":8223,"MUXDEMUX":8224,"packedX":8225,"ĠvLumBufSize":8226,"Ġoptimize":8227,"Core":8228,"RING":8229,"SZ":8230,"Se":8231,"Time":8232,"abuf":8233,"bb":8234,"ider":8235,"live":8236,"mqc":8237,"pmsav":8238,"smc":8239,"uw":8240,"stage":8241,"decompress":8242,"Ġ\"\";":8243,"Ġdh":8244,"ĠSY":8245,"ĠSENSE":8246,"ĠBGR":8247,"Ġxfer":8248,"sigmask":8249,"ĠQP":8250,"ĠFLO":8251,"cbf":8252,"VIC":8253,"cached":8254,"handshake":8255,"(%%\"":8256,"ĠINTER":8257,"Ġexternal":8258,"Ġ++;":8259,"steps":8260,"KEYFRAME":8261,"igrationState":8262,"ĠADDR":8263,"OPTIONS":8264,"ĠREADY":8265,"chrDstW":8266,"waves":8267,"Ġlduw":8268,"800000":8269,"FY":8270,"LUT":8271,"vdsp":8272,"ĠETH":8273,"Ġsdr":8274,"Ġsanity":8275,"Ġfn":8276,"Ġ10000":8277,"adjust":8278,"Ġmant":8279,"true":8280,"iling":8281,"issa":8282,"ĠNET":8283,"iron":8284,"addrs":8285,"readw":8286,"Ġoffsets":8287,"ĠFALSE":8288,"cmpstr":8289,"Release":8290,"xfc":8291,"TOTAL":8292,"ĠAVPALETTE":8293,"ĠReserved":8294,"HOD":8295,"egment":8296,"Ġnetwork":8297,"miss":8298,"Ġdimensions":8299,"hypercall":8300,"SIMPLEQ":8301,"websock":8302,"METHOD":8303,"10000000":8304,"65":8305,"=-":8306,"EG":8307,"Guest":8308,"JUMP":8309,"dtb":8310,"equal":8311,"hpte":8312,"iid":8313,"trellis":8314,"zd":8315,"replay":8316,"Ġsort":8317,"Ġfir":8318,"Ġreader":8319,"Ġreorder":8320,"unmarshal":8321,"Ġnfs":8322,"chosen":8323,"Ġlut":8324,"iss":8325,"ĠPixelFormat":8326,"MARY":8327,"ĠTry":8328,"olor":8329,"ĠEST":8330,"ĠOS":8331,"Ġcontent":8332,"Ġproble":8333,"notifiers":8334,"THER":8335,"ĠBlockdev":8336,"ĠlumStride":8337,"MOVContext":8338,"ĠAVFilterLink":8339,"calculate":8340,"asic":8341,"encrypted":8342,"Ġ':')":8343,"ĠWhen":8344,"91":8345,"Field":8346,"TSS":8347,"csp":8348,"frequency":8349,"lane":8350,"wake":8351,"reat":8352,"reserve":8353,"Ġicp":8354,"Ġfi":8355,"uted":8356,"Ġgpr":8357,"atalog":8358,"INLINE":8359,"ntsty":8360,"redDither":8361,"times":8362,"edgev":8363,"IRR":8364,"Ġzstream":8365,"anslated":8366,"Ġloader":8367,"downmix":8368,"COMMON":8369,"DPB":8370,"Ġwanted":8371,"ĠVirtQueue":8372,"Ġprovided":8373,"Ġseems":8374,"280":8375,"6000":8376,"Key":8377,"Page":8378,"Ring":8379,"VSID":8380,"cpe":8381,"pch":8382,"ydst":8383,"ĠLAST":8384,"inquiry":8385,"Ġai":8386,"Ġfcntl":8387,"Ġavs":8388,"Ġinside":8389,"Ġ42":8390,"psy":8391,"ipd":8392,"Ġiss":8393,"Ġcost":8394,"ĠCLO":8395,"Ġstructure":8396,"AVX":8397,"UNIX":8398,"masking":8399,"Ġresolution":8400,"cssid":8401,"====":8402,"eventfds":8403,"ĠINPUT":8404,"Ġplanar":8405,"ĠAVPicture":8406,"ĠKERNEL":8407,"Ġacces":8408,"correl":8409,"Ġaiocb":8410,"globals":8411,"SPEED":8412,"REPORT":8413,"Ġexisting":8414,"ĠAVDictionaryEntry":8415,"Ġcorrespon":8416,")\");":8417,")==":8418,"BIN":8419,"FU":8420,"Hi":8421,"HINT":8422,"PLAY":8423,"SNAPSHOT":8424,"aic":8425,"balloon":8426,"fadt":8427,"kstart":8428,"more":8429,"tel":8430,"Ġlocation":8431,"sted":8432,"Ġiotlb":8433,"Ġscope":8434,"Ġfsize":8435,"etype":8436,"Ġmeta":8437,"opd":8438,"Ġgd":8439,"ĠAMF":8440,"lack":8441,"Ġhint":8442,"Ġincrease":8443,"Ġstd":8444,"ĠBONITO":8445,"spar":8446,"Ġalt":8447,"performance":8448,"BUSY":8449,"Ġblocksize":8450,"msb":8451,"Ġswf":8452,"Ġtmpz":8453,"LIC":8454,"pictq":8455,"meg":8456,"Ġsignature":8457,"BOARD":8458,"weighted":8459,"SDRAM":8460,"Ġquantize":8461,"ĠConfig":8462,"CURRENT":8463,"mission":8464,"Ġworks":8465,"Ġ65535":8466,"ĠlastInLumBuf":8467,"Ġvmxnet":8468,"://":8469,"ACPI":8470,"ANON":8471,"XY":8472,"iB":8473,"rregs":8474,"zlib":8475,"ĠaSign":8476,"Ġbgr":8477,"Ġbroken":8478,"Ġ200":8479,"Ġtheir":8480,"ĠSome":8481,"constraint":8482,"ĠCode":8483,"clients":8484,"ĠQCow":8485,"subbands":8486,"Ġcurframe":8487,"ĠWait":8488,"forw":8489,"apped":8490,"Console":8491,"Ġplanep":8492,"PRIMARY":8493,"ĠEXYNOS":8494,"Ġsdhci":8495,"RDONLY":8496,"SIGSEGV":8497,"LENAME":8498,"Ġsigset":8499,"smart":8500,"Ġinsns":8501,"TBFLAG":8502,"secondary":8503,"ĠCompute":8504,"ĠPREFIX":8505,"ĠOPENPIC":8506,"Blk":8507,"Watch":8508,"ral":8509,"yc":8510,"rename":8511,"ffs":8512,"Ġudp":8513,"Ġhelp":8514,"Ġqlist":8515,"devaddr":8516,"Ġrnd":8517,"ĠPr":8518,"reamble":8519,"ĠSOF":8520,"outpicref":8521,"ĠTLS":8522,"Ġopus":8523,"Ġthose":8524,"pls":8525,"ĠQSIMPLEQ":8526,"Ġtrunc":8527,"Ġenccfg":8528,"NEG":8529,"activ":8530,"Ġfds":8531,"hwaddr":8532,"VERT":8533,"USBDevice":8534,"Ġfilled":8535,"ĠBlockBackend":8536,"Ġhostname":8537,"worker":8538,"Ġquantization":8539,"Ġdefine":8540,"BOOT":8541,"buffersink":8542,"relative":8543,"jobs":8544,"fraction":8545,"Ġuvmy":8546,"Length":8547,"SQRT":8548,"TRANSPORT":8549,"megasas":8550,"%.":8551,"&(":8552,"8000000":8553,"EST":8554,"PF":8555,"PTS":8556,"Raw":8557,"SBITS":8558,"TCE":8559,"bmp":8560,"dbs":8561,"walk":8562,"Ġfloppy":8563,"hest":8564,"Ġns":8565,"ighest":8566,"RESH":8567,"Ġstbuf":8568,"Ġchctx":8569,"mbskip":8570,"ĠTo":8571,"ENTS":8572,"RAP":8573,"fdset":8574,"ADevice":8575,"NORE":8576,"body":8577,"Ġfailure":8578,"samplesA":8579,"pcihp":8580,"Chroma":8581,"HEIGHT":8582,"VECTOR":8583,"Ġ++)":8584,"ĠGetByteContext":8585,"181":8586,"Ġemulation":8587,"ĠStream":8588,"Ġcompleted":8589,"pwritev":8590,"scratchpad":8591,"Number":8592,"ĠSecond":8593,"Ġctts":8594,"CONNECTOR":8595,"Ġreplace":8596,"GBRP":8597,"ĠADDRX":8598,"FIN":8599,"LIN":8600,"MG":8601,"Val":8602,"help":8603,"ka":8604,"mk":8605,"qmax":8606,"random":8607,"xmit":8608,"Ġzeros":8609,"intx":8610,"Ġpcr":8611,"ĠAF":8612,"ĠASF":8613,"exist":8614,"Ġnto":8615,"avccontext":8616,"INPROGRESS":8617,"Ġhad":8618,"Ġincorrect":8619,"rcParams":8620,"resolve":8621,"pcc":8622,"Ġ88":8623,"Ġcoefs":8624,"ĠBF":8625,"ĠVQ":8626,"Ġthings":8627,"SEQU":8628,"Ġneon":8629,"filtered":8630,"Ġmbn":8631,"snr":8632,"Ġcuridx":8633,"LIP":8634,"nals":8635,"Ġallocating":8636,"Ġupdated":8637,"ĠSDRAM":8638,"children":8639,"Ġrequire":8640,"vLumBufSize":8641,"evtchn":8642,"CONNECT":8643,"colour":8644,"ĠPutBitContext":8645,"ĠCalculate":8646,"5206":8647,"Cmd":8648,"LW":8649,"VFIO":8650,"ause":8651,"sram":8652,"ĠCONTROL":8653,"reget":8654,"Ġctb":8655,"Ġcvt":8656,"Ġrepeat":8657,"sioc":8658,"Ġpat":8659,"ĠAs":8660,"tract":8661,"ipts":8662,"refl":8663,"Ġcom":8664,"ritical":8665,"ĠCan":8666,"Ġjson":8667,"parc":8668,"MULT":8669,"soci":8670,"SAFE":8671,"CLARE":8672,"SERVE":8673,"sections":8674,"Ġevt":8675,"LUKS":8676,"ĠMemoryRegionSection":8677,"Ġwritable":8678,"programs":8679,"Ġprecno":8680,"Ġexists":8681,"finalize":8682,"theora":8683,"Notifier":8684,"restricted":8685,"100000":8686,"GS":8687,"ICI":8688,"Pr":8689,"Sw":8690,"XC":8691,"\\\"\\":8692,"]+=":8693,"dh":8694,"mfx":8695,"uvalpha":8696,"vreg":8697,"ĠYUV":8698,"semi":8699,"Ġcuda":8700,"Ġrecv":8701,"Ġports":8702,"adst":8703,"Ġ\"(":8704,"exclusive":8705,"emon":8706,"chro":8707,"Ġhnm":8708,"ĠCAND":8709,"sigreturn":8710,"ixFmt":8711,"FILENAME":8712,"mvbp":8713,"ĠFirst":8714,"perms":8715,"predict":8716,"owner":8717,"SYN":8718,"Ġpls":8719,"DONE":8720,"Ġexceptions":8721,"modified":8722,"Ġcommands":8723,"ĠDIV":8724,"Ġcompletion":8725,"----------------":8726,"PowerPCCPU":8727,"dispatch":8728,"fsPath":8729,"ArchState":8730,"VOFW":8731,"ĠCANDIDATE":8732,"51":8733,"HOR":8734,"QLIST":8735,"ru":8736,"rule":8737,"xsave":8738,"Ġich":8739,"Ġcipher":8740,"Ġcirrus":8741,"sic":8742,"adif":8743,"Ġmalloc":8744,"icit":8745,"ĠAt":8746,"Ġnibble":8747,"Ġdbs":8748,"Ġoss":8749,"ĠSingle":8750,"ĠMult":8751,"ĠTR":8752,"ENV":8753,"rith":8754,"ĠVLAN":8755,"Ġjs":8756,"Ġbeh":8757,"BUTTO":8758,"vmcb":8759,"ĠOPCM":8760,"swr":8761,"SDL":8762,"INITY":8763,"Ġpixelsv":8764,"hybrid":8765,"Ġbridge":8766,"allest":8767,"Ġncq":8768,"SERVED":8769,"ironment":8770,"SEQUENCE":8771,"Ad":8772,"DK":8773,"OD":8774,"QERR":8775,"[*":8776,"catalog":8777,"guess":8778,"lwd":8779,"qmin":8780,"sqrt":8781,"yield":8782,"stl":8783,"see":8784,"Ġsil":8785,"Ġcare":8786,"ersion":8787,"Ġresample":8788,"cores":8789,"Ġvnet":8790,"Ġvseq":8791,"Ġnull":8792,"drives":8793,"extu":8794,"Ġrbase":8795,"dataplane":8796,"TAB":8797,"ĠSub":8798,"ĠSave":8799,"Ġcoupling":8800,"Ġaddend":8801,"SEC":8802,"ĠRx":8803,"AVIOContext":8804,"UNUSED":8805,"sources":8806,"ĠLEN":8807,"intermediate":8808,"ĠWP":8809,"Ġloading":8810,"rength":8811,"colors":8812,"Ġinterval":8813,"Ġoverlap":8814,"safe":8815,"escale":8816,"ĠMEM":8817,"ĠSCSID":8818,"chrDstH":8819,"ĠvChrBufSize":8820,"ĠSTREA":8821,"Ġdidn":8822,"XFER":8823,"cookie":8824,"ĠlastInChrBuf":8825,"=\\\"%":8826,"CLEAR":8827,"betls":8828,"analyse":8829,"RESPON":8830,"End":8831,"dac":8832,"kick":8833,"lms":8834,"sdr":8835,"uce":8836,"Ġge":8837,"Ġdpy":8838,"Ġuid":8839,"REE":8840,"ĠMatroska":8841,"psub":8842,"indexes":8843,"ĠTest":8844,"nto":8845,"STEP":8846,"ĠBAR":8847,"ĠVideo":8848,"ĠDBDMA":8849,"pll":8850,"SEQ":8851,"AVPro":8852,"cia":8853,"subpel":8854,"bounce":8855,"ĠWindow":8856,"rdt":8857,"MOD":8858,"ĠUse":8859,"swf":8860,"VMC":8861,"MVPC":8862,"Ġinterpol":8863,"punpcklwd":8864,"cylinders":8865,"transferred":8866,"ĠMEDIA":8867,"Ġtermin":8868,"ĠChardev":8869,"synchronize":8870,"negative":8871,"revents":8872,"ĠNEON":8873,"OutputVisitor":8874,"ĠEAGAIN":8875,"Coeffs":8876,"pulse":8877,"FAILURE":8878,"sparc":8879,"AVProbeData":8880,"110":8881,"CRTC":8882,"RP":8883,"]%":8884,"nchannels":8885,"sink":8886,"vser":8887,"xmax":8888,"yuy":8889,"stand":8890,"Ġrex":8891,"coupling":8892,"Ġpulse":8893,"ĠAVSTREAM":8894,"Ġhtab":8895,"Ġri":8896,"Ġraddr":8897,"Ġrlevel":8898,"RESU":8899,"ĠMC":8900,"ENCODING":8901,"SIVE":8902,"ĠBP":8903,"ĠBUS":8904,"reds":8905,"ncq":8906,"ncContext":8907,"Ġassigned":8908,"AVMEDIA":8909,"Ġexceed":8910,"Ġexplicit":8911,"mvtype":8912,"writefn":8913,"timecode":8914,"comps":8915,"Ġearly":8916,"cris":8917,"prepare":8918,"STALL":8919,"epctx":8920,"BANK":8921,"undle":8922,"csum":8923,"ĠUV":8924,"IGNORE":8925,"MDK":8926,"NAK":8927,"Ġlisten":8928,"Ġdrives":8929,"Ġkeycode":8930,"Ġquery":8931,"Ġcolors":8932,"Ġrgba":8933,"COMPLI":8934,"Subtitle":8935,"branchy":8936,"URLContext":8937,"-+-+-+-+":8938,"trailer":8939,"At":8940,"GI":8941,"HP":8942,"Name":8943,"bsi":8944,"rmd":8945,"sun":8946,"zy":8947,"stbuf":8948,"stsc":8949,"Ġssse":8950,"Ġintr":8951,"Ġvio":8952,"exynos":8953,"major":8954,"Ġrot":8955,"ifs":8956,"ĠPSY":8957,"ĠPART":8958,"Ġdepend":8959,"mbn":8960,"Ġbufsize":8961,"named":8962,"reduce":8963,"ĠISO":8964,"curidx":8965,"ĠRMD":8966,"mvs":8967,"Ġswap":8968,"CONSO":8969,"bose":8970,"fsState":8971,"ĉĉĉĠĠ":8972,"ENTRI":8973,"Ġiommu":8974,"ĠThese":8975,"Ġphase":8976,"Ġanyway":8977,"Ġlowres":8978,"Ġmatches":8979,"Ġclean":8980,"ĠlumBufIndex":8981,"virtfs":8982,"Ġfunctions":8983,"uyvy":8984,"twop":8985,",%%":8986,"1000000":8987,"=,":8988,"Do":8989,"FB":8990,"GG":8991,"LR":8992,"OLD":8993,"Sh":8994,"qio":8995,"rD":8996,"two":8997,"Ġifname":8998,"Ġaux":8999,"Ġfpu":9000,"iteration":9001,"locty":9002,"Ġpnum":9003,"ĠAIO":9004,"Ġwv":9005,"ĠĠĠĠĠĠĠĠĠĠĠĠĠĠĠĠĠĠĠĠĠĠĠĠĠĠĠĠĠĠĠĠĠĠĠĠĠĠĠĠĠĠĠĠĠĠĠĠĠĠĠĠĠĠĠĠĠ":9006,"ĠSB":9007,"ivgen":9008,"ĠMCI":9009,"blocked":9010,"ĠsrcU":9011,"ĠsrcV":9012,"shm":9013,"dstH":9014,"ĠEnd":9015,"directory":9016,"writew":9017,"ĠHe":9018,"interpreter":9019,"CATE":9020,"Ġparity":9021,"ĠBDRVV":9022,"Connector":9023,"uxContext":9024,"Ġquirk":9025,"Ġcommit":9026,"INTERFACE":9027,"sysbus":9028,"content":9029,"ĠdstWidth":9030,"graphic":9031,"NSV":9032,"Ġgoing":9033,"Ġdsputil":9034,"vChrBufSize":9035,"SHARED":9036,"ĠAUDIO":9037,"Ġscratch":9038,"ĠPOLL":9039,"Ġnegate":9040,"Ġimmediate":9041,"Ġcorresponding":9042,"RESPONSE":9043,"'ll":9044,",&":9045,"Cfg":9046,"Surface":9047,"WE":9048,"df":9049,"dw":9050,"fy":9051,"nbits":9052,"Ġfrac":9053,"Ġpk":9054,"mpc":9055,"pire":9056,"readfn":9057,"ĠQCrypto":9058,"ĠFAST":9059,"filesize":9060,"Ġequal":9061,"Ġproto":9062,"Ġreads":9063,"Ġcomponents":9064,"8080":9065,"edgeh":9066,"CRS":9067,"ISO":9068,"ABI":9069,"ually":9070,"Ġaccount":9071,"Ġcorrection":9072,"Ġinvalidate":9073,"cplus":9074,"IDEState":9075,"[]){":9076,"Ġcorrected":9077,"Ġcblkno":9078,"Ġiteration":9079,"attached":9080,"pretty":9081,"Ġstrncpy":9082,"Ctx":9083,"CDROM":9084,"ech":9085,"mce":9086,"qmat":9087,"xED":9088,"Ġcd":9089,"Ġtaddr":9090,"Ġmakes":9091,"Ġvo":9092,"Ġnvram":9093,"ERAL":9094,"drq":9095,"ĠSPI":9096,"ĠSince":9097,"istered":9098,"shli":9099,"Ġ'.":9100,"ncy":9101,"direction":9102,"DRConnector":9103,"Ġcurbits":9104,"ather":9105,"ĠLBR":9106,"dirfd":9107,"TIFY":9108,"pagesize":9109,"ĠAVPixFmt":9110,"mooth":9111,"ĠMACHINE":9112,"Ġ...)":9113,"ACTION":9114,"Ġvalidate":9115,"which":9116,"Ġractx":9117,"Ġtimestamps":9118,"lementary":9119,"Ġsimp":9120,"Ġcapability":9121,"ĠVirtIOSCSI":9122,"Ġcorrectly":9123,"Ġschro":9124,"This":9125,"VirtIOSCSI":9126,"hypertas":9127,"identify":9128,"lastInChrBuf":9129,"01010":9130,"corruptions":9131,"CONSOLE":9132,"twopass":9133,"ĠAVPixFmtDescriptor":9134,"84":9135,"AES":9136,"IID":9137,"Message":9138,"Mutex":9139,"Plan":9140,"Rc":9141,"bfraction":9142,"car":9143,"calloc":9144,"ised":9145,"pflash":9146,"ĠERR":9147,"ĠFILTER":9148,"required":9149,"seen":9150,"semb":9151,"Ġsar":9152,"Ġsuffix":9153,"enet":9154,"Ġ{\"":9155,"Ġasc":9156,"Ġvbv":9157,"Ġreturned":9158,"Ġrandom":9159,"isr":9160,"ĠPF":9161,"MAN":9162,"ĠQLIT":9163,"dstBlock":9164,"layers":9165,"Ġeffect":9166,"Ġdomain":9167,"CONT":9168,"ithm":9169,"Ġitself":9170,"tempt":9171,"ildiv":9172,"brk":9173,"ICUB":9174,"4096":9175,"ĠzExp":9176,"Ġopened":9177,"cryption":9178,"ĠPCM":9179,"Ġemulate":9180,"postcopy":9181,"ĠRTC":9182,"fsPDU":9183,"ĠEnable":9184,"ĠSECTOR":9185,"telnet":9186,"BUTTON":9187,".\",":9188,"411":9189,"BID":9190,"HU":9191,"HELPER":9192,"Media":9193,"YMO":9194,"bundle":9195,"easy":9196,"fopen":9197,"js":9198,"kf":9199,"np":9200,"oem":9201,"wmv":9202,"amma":9203,"cod":9204,"Ġpdev":9205,"Ġphdr":9206,"iclk":9207,"Ġvpic":9208,"ĠAccess":9209,"lapp":9210,"ioeventfd":9211,"Ġodd":9212,"ĠSystem":9213,"ĠCA":9214,"ĠIgno":9215,"ĠQOBJECT":9216,"ĠRV":9217,"ĠFind":9218,"busy":9219,"udo":9220,"substream":9221,"ĠFFM":9222,"anted":9223,"Ġpktl":9224,"haskey":9225,"mcbsp":9226,"Ġdirection":9227,"codingset":9228,"ĠPIXEL":9229,"tpv":9230,"SECTORS":9231,"Ġclosesocket":9232,"ĠStatus":9233,"lavfi":9234,"Ġfourcc":9235,"ĠOtherwise":9236,"HINTS":9237,"72":9238,"Pb":9239,"PID":9240,"SING":9241,"cchip":9242,"fsize":9243,"mf":9244,"sot":9245,"tid":9246,"xp":9247,"Ġuri":9248,"Ġ(__":9249,"ero":9250,"Ġrestart":9251,"Ġnbits":9252,"setinfo":9253,"Ġhx":9254,"devep":9255,"ession":9256,"mmc":9257,"terms":9258,"ceal":9259,"Ġunder":9260,"Ġthp":9261,"INTEL":9262,"Ġoutside":9263,"ĠEINVAL":9264,"mtp":9265,"Ġdoing":9266,"subauth":9267,"boolean":9268,"CAPS":9269,"Ġ90000":9270,"llx":9271,"Ġopening":9272,"ASL":9273,"Ġmpegts":9274,"tokens":9275,"Ġdescriptors":9276,"Ġconditional":9277,"Ġelements":9278,"ĠCHROMA":9279,"Ġoverride":9280,"Ġoperations":9281,"ĠFailed":9282,"bidir":9283,"511":9284,"Bo":9285,"]-":9286,"broadcast":9287,"lpes":9288,"ni":9289,"standard":9290,"Ġ(~":9291,"sens":9292,"orientation":9293,"Ġaround":9294,"itation":9295,"Ġmedi":9296,"Ġvreader":9297,"Ġavccontext":9298,"chk":9299,"Ġwm":9300,"Ġud":9301,"Ġdemux":9302,"Ġuintptr":9303,"Ġchip":9304,"ĠSPS":9305,"Ġconversion":9306,"ceildiv":9307,"(\"{":9308,"Ġoper":9309,"ĠIscsi":9310,"ĠRW":9311,"MTX":9312,"timebase":9313,"ials":9314,"fsdev":9315,"(*(":9316,"actual":9317,"fcm":9318,"sdl":9319,"Ġperform":9320,"SWSCALE":9321,"Ġsegments":9322,"ĠMEMTX":9323,"cmos":9324,"ĠSTATE":9325,"Ġuvmx":9326,"lossless":9327,"ĠSTREAM":9328,"ENTRIES":9329,"'%":9330,").\\":9331,"ESC":9332,"PB":9333,"cw":9334,"dle":9335,"iadst":9336,"ncomponents":9337,"ostreams":9338,"qq":9339,"uhci":9340,"ymax":9341,"yond":9342,"ĠFIELD":9343,"seudo":9344,"Ġte":9345,"Ġtw":9346,"Ġresize":9347,"sifields":9348,"cover":9349,"Ġpot":9350,"urther":9351,"Ġnic":9352,"iobn":9353,"INV":9354,"ĠSee":9355,"ofday":9356,"ĠMem":9357,"ĠTCO":9358,"Ġxmin":9359,"memop":9360,"Ġthus":9361,"Ġymax":9362,"])>>":9363,"intercept":9364,"RIS":9365,"MBLE":9366,"Ġextensions":9367,"hda":9368,"FUNNY":9369,"Ġirqs":9370,"vdpau":9371,"BACKEND":9372,"Ġcris":9373,"Ġcapabilities":9374,"recovery":9375,"ĠExt":9376,"ĠRTMP":9377,"nxhd":9378,"Ġattached":9379,"ParserContext":9380,"ĠUVUV":9381,"EMMS":9382,"OTHER":9383,"fcr":9384,"gfx":9385,"green":9386,"iargs":9387,"suffix":9388,"ĠFIX":9389,"Ġfit":9390,"itd":9391,"Ġrev":9392,"Ġremoved":9393,"utoff":9394,"Ġvendor":9395,"Ġuart":9396,"ĠhLum":9397,"Ġqadd":9398,"DEST":9399,"ĠNOP":9400,"ĠPer":9401,"ĠPage":9402,"TACH":9403,"upper":9404,"concat":9405,"ĠBMP":9406,"ĠCLIP":9407,"parm":9408,"Ġtransp":9409,"diotrack":9410,"movn":9411,"ĠFA":9412,"Ġofs":9413,"OPER":9414,"ĠGArray":9415,"film":9416,"defs":9417,"Ġaddrlen":9418,"prepend":9419,"Ġsche":9420,"bochs":9421,"oding":9422,"Ġaddresses":9423,"ACY":9424,"Ġfilesize":9425,"anging":9426,"topleft":9427,"Ġbandwidth":9428,"ĠUSBDevice":9429,"Bitmap":9430,"Ġidebus":9431,"canMMX":9432,"COUNTER":9433,"TRUN":9434,"Ġemulated":9435,"Ġsafe":9436,"xbzrle":9437,"Ġcylinders":9438,"384":9439,"recording":9440,"ĠTAB":9441,"QIOChannel":9442,"ĠBusState":9443,"LEGACY":9444,"\".":9445,"HV":9446,"IQ":9447,"PG":9448,"QCrypto":9449,"UX":9450,"UINT":9451,"VT":9452,"horiz":9453,"madd":9454,"nand":9455,"ntry":9456,"qbool":9457,"zu":9458,"Ġreverse":9459,"sib":9460,"Ġpt":9461,"ĠAPIC":9462,"ĠABS":9463,"mpv":9464,"ĠPES":9465,"mbar":9466,"Ġ8000":9467,"Ġffmpeg":9468,"Ġymin":9469,"CODED":9470,"quit":9471,"indicator":9472,"120":9473,"((*":9474,"PSW":9475,"ĠUser":9476,"LIGN":9477,"edgecv":9478,"cessor":9479,"Ġinterlacing":9480,"10001000":9481,"ĠARMCPU":9482,"pcmcia":9483,"Ġflat":9484,"lumToYV":9485,"0303":9486,"Ġxenfb":9487,"paddd":9488,"VAtom":9489,"SEGMENT":9490,"Ġprotection":9491,"Ġcapture":9492,"Ġinstructions":9493,"join":9494,"Only":9495,"Ġinstance":9496,"=\",":9497,"EY":9498,"NZ":9499,"NMI":9500,"Spec":9501,"VSCSI":9502,"rno":9503,"smooth":9504,"vma":9505,"Ġlag":9506,"stq":9507,"Ġ(=":9508,"Ġcat":9509,"ĠĠĠĠĠĠĠĠĠĠĠĠĠĠĠĠčĊ":9510,"orrect":9511,"intc":9512,"into":9513,"Ġaway":9514,"Ġred":9515,"sim":9516,"arn":9517,"arp":9518,"adow":9519,"Ġvb":9520,"ĠALL":9521,"ĠnPb":9522,"Ġdat":9523,"drom":9524,"mpa":9525,"ĠuDest":9526,"bufptr":9527,"ĠPre":9528,"Ġstorage":9529,"TAP":9530,"amplerate":9531,"untime":9532,"gbp":9533,"Ġgetting":9534,"STCTL":9535,"ĠxDstInSrc":9536,"ĠCUR":9537,"ĠVID":9538,"Ġunix":9539,"PAPRE":9540,"UNIT":9541,"undant":9542,"CAPA":9543,"SUR":9544,"herit":9545,"RegInfo":9546,"LCD":9547,"Ġloaded":9548,"ĠPARAM":9549,"multip":9550,"mitted":9551,"postproc":9552,"NONKEY":9553,"Ġconnected":9554,"ĠBdrvCheck":9555,"Ġattack":9556,"IMGFMT":9557,"lastInLumBuf":9558,"strlcatf":9559,"fsFidState":9560,"wakeup":9561,"ĠTRUE":9562,"FPE":9563,"WO":9564,"[^":9565,"aes":9566,"fctx":9567,"hu":9568,"rpath":9569,"rary":9570,"sq":9571,"wctx":9572,"Ġssid":9573,"Ġce":9574,"Ġredo":9575,"ancy":9576,"Ġgreater":9577,"peak":9578,"Ġlanguage":9579,"essence":9580,"logical":9581,"(\"/":9582,"Ġops":9583,"ĠVER":9584,"Ġgeneric":9585,"ĠReturn":9586,"Ġalias":9587,"pause":9588,"UNMAP":9589,"ĠHOST":9590,"ldub":9591,"Ġstarting":9592,"Ġcompress":9593,"Ġprecision":9594,"8618":9595,"topright":9596,"ABORT":9597,"handled":9598,"PROM":9599,"ĠMOVAtom":9600,"capture":9601,"ĠThread":9602,"Ġdirac":9603,"xFC":9604,"COMPLET":9605,"Ġsecondary":9606,"Ġsignals":9607,"permutated":9608,"Ġschid":9609,"XTENSA":9610,"Ġstrtoull":9611,"Ġimmediately":9612,"ĠRETURN":9613,"UMBER":9614,"Ġproblem":9615,"45":9616,"=(":9617,"BICUB":9618,"Pack":9619,"ea":9620,"pbuf":9621,"qsv":9622,"vos":9623,"Ġ){":9624,"reinit":9625,"ori":9626,"Ġfake":9627,"Ġmd":9628,"ĠAd":9629,"Ġdpl":9630,"peq":9631,"avframe":9632,"prd":9633,"INACTIVE":9634,"))>>":9635,"Ġqmat":9636,"iment":9637,"(\"\");":9638,"ĠDV":9639,"CHR":9640,"busb":9641,"NODE":9642,"vmx":9643,"ĠLSI":9644,"ĠWV":9645,"ĠCPUFLAG":9646,"ained":9647,"Ġskipping":9648,"domid":9649,"Ġoutputsamples":9650,"MISC":9651,"hwframe":9652,"ĠINTFLOAT":9653,"InfoList":9654,"Ġmono":9655,"dxva":9656,"Ġmiss":9657,"movdqa":9658,"Ġfbdev":9659,"residue":9660,"Ġlittle":9661,"Ġttmb":9662,"BINARY":9663,",-":9664,"COR":9665,"Fd":9666,"GRO":9667,"UDP":9668,"fop":9669,"fec":9670,"glob":9671,"png":9672,"rfds":9673,"tis":9674,"uate":9675,"uDest":9676,"ves":9677,"ĠLEVEL":9678,"ĠiTask":9679,"Ġslots":9680,"Ġfone":9681,"Ġpg":9682,"Ġprefetch":9683,"adc":9684,"Ġmsc":9685,"Ġgives":9686,"codeblocks":9687,"avi":9688,"avlc":9689,"Ġwell":9690,"Ġhard":9691,"tss":9692,"scon":9693,"istream":9694,"CPL":9695,"Ġ8280":9696,"ĠCRC":9697,"ĠVDP":9698,"ĠVMDK":9699,"fdsp":9700,"share":9701,"Ġ'?":9702,"ĠQu":9703,"CHRO":9704,"keyboard":9705,"Ġtimers":9706,"ellaris":9707,"obmc":9708,"FEFE":9709,"FFFFFFFF":9710,"gptimer":9711,"Ġphi":9712,"USES":9713,"Ġfew":9714,"Factor":9715,"whit":9716,"Height":9717,"stdio":9718,"stdout":9719,"BYTES":9720,"SFENCE":9721,"adaptive":9722,"VirtQueue":9723,"ĠBuffer":9724,"SwScaler":9725,"BIDIR":9726,"Ac":9727,"AMD":9728,"BPC":9729,"Fm":9730,"GRA":9731,"LFE":9732,"PIT":9733,"TOR":9734,"VLAN":9735,"cavs":9736,"gpt":9737,"nfo":9738,"tely":9739,"yv":9740,"stts":9741,"Ġcell":9742,"sicp":9743,"cos":9744,"Ġpwt":9745,"Ġvt":9746,"Ġvect":9747,"operation":9748,"Ġgrow":9749,"ĠAPP":9750,"))[":9751,"aken":9752,"Ġform":9753,"ising":9754,"isspace":9755,"aces":9756,"Ġdesired":9757,"MAC":9758,"ĠSASL":9759,"resume":9760,"Ġ34":9761,"Ġkbd":9762,"Ġ'=":9763,"parity":9764,"ĠESP":9765,"Ġaddrlo":9766,"athrow":9767,"ROCKER":9768,"uvid":9769,"Ġbounce":9770,"Ġproduct":9771,"ENOSPC":9772,"Ġ[%":9773,"capability":9774,"Ġminor":9775,"sockopt":9776,"ĠJSON":9777,"RCV":9778,"ĠSetup":9779,"Ġinitialization":9780,"Ġsnapshots":9781,"ĠTrans":9782,"****************":9783,"OPENPIC":9784,"alpPixBuf":9785,"Ġrados":9786,"sicpal":9787,"89":9788,"CCR":9789,"DST":9790,"HY":9791,"KER":9792,"Meta":9793,"NUMBER":9794,"XVMC":9795,"bf":9796,"milkymist":9797,"rray":9798,"Ġ*);":9799,"Ġtget":9800,"Ġbg":9801,"Ġpty":9802,"Ġintno":9803,"Ġnblocks":9804,"iobase":9805,"ils":9806,"Ġinfinit":9807,"LLY":9808,"statistics":9809,"ĠĠĠĠĠĠĠĠĠĠĠĠĠĠĠĠĠĠĠĠĠĠĠĠĠĠĠĠĠĠĠĠĠĠĠĠĠĠĠĠĠĠĠĠĠĠĠĠĠĠĠĠĠĠĠĠĠĠĠ":9810,"siginfo":9811,"ĠVSYNC":9812,"memset":9813,"ĠRR":9814,"gener":9815,"generate":9816,"compensation":9817,"Ġswr":9818,"maxval":9819,"ĠHigh":9820,"USrc":9821,"chrV":9822,"configure":9823,"Ġproces":9824,"MMMU":9825,"Ġlinear":9826,"PTION":9827,"grid":9828,"Ġ\"\\\\":9829,"Ġsdp":9830,"ĠKEY":9831,"caped":9832,"PARAMS":9833,"Ġregions":9834,"ĠlumSrc":9835,"partitioning":9836,"xdw":9837,"Proxy":9838,"Ġhappens":9839,"NetClientState":9840,"afq":9841,"REALTIME":9842,"button":9843,"MemOp":9844,"DAR":9845,"EINPROGRESS":9846,"Fe":9847,"YLOAD":9848,"]&":9849,"luster":9850,"normal":9851,"rsdp":9852,"ĉĠĠĠĠĠĠĠ":9853,"ĠUSER":9854,"Ġsamplerate":9855,"Ġ{\\":9856,"idwt":9857,"Ġmisc":9858,"under":9859,"unrestricted":9860,"Ġgu":9861,"Ġdm":9862,"Ġwon":9863,"tsc":9864,"ully":9865,"ĠPSW":9866,"Ġdequant":9867,"ĠĠĠĠĠĠĠĠĠĠĠĠĠĠĠĠĠĠĠĠĠĠĠĠĠĠĠĠĠĠĠĠĠĠĠĠĠĠĠĠĠĠĠĠĠĠĠĠĠĠĠĠĠĠĠĠ":9868,"addrinfo":9869,"condi":9870,"Ġiso":9871,"reftable":9872,"Ġxmax":9873,"CTR":9874,"LEASE":9875,"PRIGHT":9876,"Ġsep":9877,"mvc":9878,"phandle":9879,"Ġarch":9880,"crm":9881,"iova":9882,"ldt":9883,"BAND":9884,"Ġitem":9885,"ĠWT":9886,"FormatParameters":9887,"TOPRIGHT":9888,"Ġblks":9889,"Ġaccept":9890,"Bits":9891,"bootinfo":9892,"blue":9893,"COMPA":9894,"Ġmaybe":9895,"Ġcssid":9896,"Ġcrm":9897,"ĠISADevice":9898,"ĉĉĉĉĠĠ":9899,"NONREF":9900,"gnoring":9901,"dstWidth":9902,"mergeh":9903,"residues":9904,"Ġproperly":9905,"Ġrejected":9906,"movzbl":9907,"ĠHTTPSTATE":9908,"PREAMBLE":9909,"ANONYMO":9910,"Ġpotential":9911,"GROUP":9912,"ANONYMOUS":9913,"Id":9914,"QTAILQ":9915,"Window":9916,"dot":9917,"dwt":9918,"ecode":9919,"ptimer":9920,"svc":9921,"taddr":9922,"xmin":9923,"Ġ].":9924,"Ġsin":9925,"Ġsasl":9926,"ones":9927,"ctr":9928,"Ġtpm":9929,"Ġttbr":9930,"icache":9931,"Ġvps":9932,"ĠAVINDEX":9933,"ĠAVFormatParameters":9934,"ilt":9935,"ilin":9936,"Ġratio":9937,"Ġrule":9938,"ĠParse":9939,"Ġdeal":9940,"FFMIN":9941,"sigcontext":9942,"ractx":9943,"Ġcodecs":9944,"SCF":9945,"chrMmx":9946,"ĠTCGOp":9947,"ĠTCGMemOp":9948,"dirac":9949,"Ġreftable":9950,"mcg":9951,"Ġmodes":9952,"Ġpcnet":9953,"ĠARMMMU":9954,"dmac":9955,"PREV":9956,"Ġtimecode":9957,"ufficient":9958,"Ġpermission":9959,"Ġphb":9960,"totalframes":9961,"ĠCHECKED":9962,"Ġdelayed":9963,"ĠNVRAM":9964,"ENABLED":9965,"ĠVirtIOBlock":9966,"reslevels":9967,"HEVCContext":9968,"GetBitContext":9969,"Ġsupp":9970,"Ġsynth":9971,"iskReq":9972,"Ġmmxext":9973,"DSISR":9974,"ĠMIGRATION":9975,"Missing":9976,"Ġloaderparams":9977,"FUA":9978,"standby":9979,"SURFACE":9980,"AX":9981,"Cont":9982,"DONT":9983,"Hotplug":9984,"NDS":9985,"QMP":9986,"bort":9987,"gpe":9988,"lsps":9989,"nreslevels":9990,"ox":9991,"oint":9992,"wave":9993,"ypos":9994,"->_":9995,"remov":9996,"stages":9997,"strength":9998,"des":9999}